[PAD]
[unused1]
[unused2]
[unused3]
[unused4]
[unused5]
[unused6]
[unused7]
[unused8]
[unused9]
[UNK]
[CLS]
[SEP]
[MASK]
!
"
#
$
%
&
'
(
)
*
+
,
-
.
/
0
1
2
3
4
5
6
7
8
9
:
;
<
=
>
?
@
A
B
C
D
E
F
G
H
I
J
K
L
M
N
O
P
Q
R
S
T
U
V
W
X
Y
Z
[
\
]
^
_
a
b
c
d
e
f
g
h
i
j
k
l
m
n
o
p
q
r
s
t
u
v
w
x
y
z
{
|
}
~
¡
£
¥
§
¨
ª
«
°
±
²
³
·
¹
º
»
½
¿
À
Á
Â
Ä
Å
Æ
Ç
È
É
Ê
Í
Ñ
Ó
Ô
Ö
×
Ø
Ú
Ü
Þ
à
á
â
ä
æ
ç
è
é
í
ñ
ó
ô
ö
ú
ü
Ā
ā
Č
Đ
İ
Ł
ŋ
Ō
ō
Œ
œ
Ř
Ś
Ş
Š
Ż
Ž
Ș
ʿ
ˈ
ː
Α
Κ
Μ
Ω
α
β
δ
λ
ν
π
τ
К
П
Р
С
Т
་
Ḫ
‖
‚
„
†
•
‧
‰
′
″
‹
›
※
€
℃
№
ℝ
Ⅰ
Ⅱ
Ⅲ
←
→
↔
⇒
∈
−
∞
≈
≤
≥
⋯
①
②
─
■
□
○
◎
●
★
☆
♀
♂
、
。
〇
〈
〉
《
》
「
」
『
』
【
】
〔
〕
〜
い
え
お
け
こ
さ
せ
と
の
は
ふ
も
ゆ
よ
る
れ
わ
ア
イ
ウ
エ
オ
ク
コ
サ
デ
ト
ド
ノ
バ
フ
ブ
プ
マ
ミ
メ
モ
レ
ロ
・
一
丁
七
万
丈
三
上
下
不
与
丐
丑
专
且
丕
世
丘
丙
业
丛
东
丝
丞
丟
丢
两
严
並
丧
个
丫
中
丰
串
临
丸
丹
为
主
丽
举
乂
乃
久
么
义
之
乌
乍
乎
乏
乐
乒
乓
乔
乖
乘
乙
九
乞
也
习
乡
书
乩
买
乱
乳
乾
亂
了
予
争
事
二
于
亏
云
互
五
井
亘
亚
些
亞
亟
亡
亢
交
亥
亦
产
亨
亩
享
京
亭
亮
亲
亳
亵
亶
人
亿
什
仁
仄
仅
仆
仇
今
介
仍
从
仑
仓
仔
仕
他
仗
付
仙
仡
代
令
以
仪
们
仰
仲
件
价
任
份
仿
企
伉
伊
伍
伎
伏
伐
休
众
优
伙
会
伞
伟
传
伤
伦
伪
伯
估
伴
伶
伸
伺
似
伽
佃
但
佇
佈
位
低
住
佐
佑
体
佔
何
佗
佘
余
佚
佛
作
佞
佟
你
佢
佣
佤
佥
佩
佬
佯
佰
佳
併
佶
佼
使
侃
侄
來
侈
例
侍
侏
侑
侖
侗
供
依
侠
侣
侦
侧
侨
侬
侮
侯
侵
侶
便
係
促
俄
俊
俎
俏
俐
俑
俗
俘
俚
保
俞
俟
俠
信
俣
俨
俩
俪
俭
修
俯
俱
俳
俶
俸
俺
俾
倆
倉
個
倍
們
倒
倖
倘
候
倚
借
倡
倦
倩
倪
倫
倬
倭
债
倻
值
倾
偃
假
偈
偉
偏
偕
做
停
健
側
偵
偶
偷
偽
偿
傀
傅
傈
傍
傑
傕
傘
備
傢
傣
储
催
傭
傲
傳
債
傷
傻
傾
僅
僉
像
僑
僕
僖
僚
僧
僭
僮
僱
僳
僵
價
僻
儀
儁
儂
億
儉
儋
儒
儘
償
儡
優
儲
儷
儼
儿
兀
允
元
兄
充
兆
兇
先
光
克
兌
免
兑
兒
兔
兖
兗
党
兜
兢
入
內
全
兩
八
公
六
兮
兰
共
关
兴
兵
其
具
典
兹
养
兼
兽
冀
内
円
冇
冈
冉
冊
册
再
冏
冑
冒
冕
冗
写
军
农
冠
冢
冤
冥
冪
冬
冯
冰
冲
决
冴
况
冶
冷
冻
冼
净
凄
准
凉
凋
凌
凍
减
凑
凛
凜
凝
几
凡
凤
凭
凯
凰
凱
凳
凶
凸
凹
出
击
函
凿
刀
刁
刃
分
切
刈
刊
刍
刎
刑
划
列
刘
则
刚
创
初
删
判
別
利
刪
别
刮
到
制
刷
券
刹
刺
刻
剂
剃
則
削
剋
剌
前
剎
剑
剔
剖
剛
剝
剥
剧
剩
剪
副
割
創
剷
剽
剿
劃
劇
劈
劉
劍
劑
力
劝
办
功
加
务
劣
动
助
努
劫
劭
励
劲
劳
効
劾
势
勁
勃
勇
勉
勋
勐
勒
動
勖
勗
勘
務
勛
勝
勞
募
勢
勤
勳
勵
勸
勺
勻
勾
勿
匀
包
匆
匈
匍
匐
匕
化
北
匙
匝
匠
匡
匣
匪
匮
匯
匱
匹
区
医
匾
匿
區
十
千
卅
升
午
卉
半
卍
华
协
卑
卒
卓
協
单
卖
南
博
卜
卞
占
卡
卢
卤
卦
卧
卫
卯
印
危
即
却
卵
卷
卸
卻
卿
厂
厄
厅
历
厉
压
厌
厕
厘
厚
厝
原
厢
厥
厦
厨
厩
厭
厲
去
县
参
參
又
叉
及
友
双
反
发
叔
取
受
变
叙
叛
叟
叠
叡
叢
口
古
句
另
叩
只
叫
召
叭
叮
可
台
叱
史
右
叶
号
司
叹
叻
吁
吃
各
合
吉
吊
吋
同
名
后
吏
吐
向
吒
吓
吕
吗
君
吝
吞
吟
吠
吡
否
吧
吨
吩
含
听
启
吳
吴
吵
吶
吸
吹
吻
吼
吾
呀
呂
呆
呈
告
呋
呎
呐
呕
员
呜
呢
呤
周
味
呵
呼
命
咀
咁
咆
和
咎
咏
咐
咒
咕
咖
咤
咨
咩
咪
咫
咬
咯
咱
咲
咳
咸
咽
哀
品
哄
哆
哇
哈
哉
哌
响
哑
哗
員
哥
哦
哨
哩
哪
哭
哮
哲
哺
哼
唁
唆
唇
唐
唑
唔
唤
售
唯
唱
唸
啄
商
啉
啊
問
啜
啞
啟
啡
啤
啦
啮
啰
啶
啸
啼
啾
喀
喂
喃
善
喆
喇
喉
喊
喋
喔
喘
喙
喚
喜
喝
喧
喪
喬
單
喱
喵
喷
喻
嗅
嗎
嗓
嗚
嗜
嗟
嗣
嗪
嗽
嘅
嘆
嘉
嘌
嘎
嘔
嘗
嘘
嘛
嘟
嘢
嘧
嘩
嘯
嘱
嘲
嘴
嘶
嘻
嘿
噁
噌
噗
器
噩
噪
噬
噴
噶
噸
噹
噻
嚇
嚎
嚕
嚣
嚮
嚴
嚼
囂
囉
囊
囍
囑
囚
四
回
因
团
囤
囧
囪
园
困
囱
围
固
国
图
圃
圆
圈
國
圍
園
圓
圖
團
圜
土
圣
在
圩
圪
圭
地
圳
场
圻
圾
址
坂
均
坊
坍
坎
坏
坐
坑
块
坚
坛
坝
坞
坟
坠
坡
坤
坦
坨
坪
坳
坵
坷
垂
垃
垄
垅
型
垒
垓
垛
垠
垢
垣
垦
垩
垫
垭
垮
埃
埋
城
埔
埕
埗
域
埠
埡
埤
埭
埴
執
培
基
埼
堀
堂
堃
堅
堆
堇
堊
堑
堕
堡
堤
堪
堯
堰
報
場
堵
塊
塌
塑
塔
塗
塘
塚
塞
塢
填
塬
塭
塵
塹
塾
墀
境
墅
墉
墊
墓
増
墘
墙
墜
增
墟
墨
墩
墮
墳
墾
壁
壇
壑
壓
壕
壘
壞
壟
壠
壢
壤
壩
士
壬
壮
壯
声
壳
壶
壹
壺
壽
处
备
复
夏
夔
夕
外
夙
多
夜
够
夠
夢
夥
大
天
太
夫
夭
央
夯
失
头
夷
夸
夹
夺
夾
奄
奇
奈
奉
奋
奎
奏
奐
契
奔
奕
奖
套
奘
奚
奠
奢
奥
奧
奪
奬
奭
奮
女
奴
奶
奸
她
好
如
妃
妄
妆
妇
妈
妊
妍
妒
妓
妖
妙
妝
妞
妤
妥
妨
妮
妲
妳
妹
妻
妾
姆
姊
始
姍
姐
姑
姓
委
姗
姚
姜
姝
姥
姦
姨
姫
姬
姻
姿
威
娃
娄
娅
娇
娑
娘
娛
娜
娟
娠
娣
娥
娩
娱
娴
娶
娼
婁
婆
婉
婕
婚
婢
婦
婪
婭
婴
婷
婺
婿
媒
媚
媛
媲
媳
媽
嫁
嫂
嫉
嫌
嫔
嫖
嫡
嫣
嫦
嫩
嫻
嬅
嬉
嬌
嬤
嬪
嬰
嬴
嬸
孀
子
孔
孕
孖
字
存
孙
孚
孛
孜
孝
孟
孢
季
孤
学
孩
孫
孰
孵
學
孺
孽
宁
它
宅
宇
守
安
宋
完
宏
宓
宕
宗
官
宙
定
宛
宜
宝
实
宠
审
客
宣
室
宥
宦
宪
宫
宮
宰
害
宴
宵
家
宸
容
宽
宾
宿
寂
寄
寅
密
寇
富
寐
寒
寓
寞
察
寡
寢
寥
實
寧
寨
審
寫
寬
寮
寰
寵
寶
寸
对
寺
寻
导
寿
封
専
射
将
將
專
尉
尊
尋
對
導
小
少
尔
尕
尖
尘
尚
尝
尤
尧
尬
就
尴
尷
尸
尹
尺
尼
尽
尾
尿
局
屁
层
居
屆
屈
届
屋
屍
屎
屏
屑
展
属
屠
屡
屢
層
履
屬
屯
山
屹
屿
岁
岂
岌
岐
岑
岔
岖
岗
岘
岙
岚
岛
岡
岩
岫
岬
岭
岱
岳
岷
岸
峇
峒
峙
峡
峦
峨
峪
峭
峰
峴
島
峻
峽
崁
崇
崎
崔
崖
崗
崙
崛
崧
崩
崭
崴
嵇
嵊
嵋
嵌
嵐
嵩
嵯
嶄
嶇
嶋
嶠
嶺
嶼
巅
巍
巒
巔
巖
川
州
巡
巢
工
左
巧
巨
巩
巫
差
己
已
巳
巴
巷
巻
巽
巾
币
市
布
帅
帆
师
希
帐
帕
帖
帘
帚
帛
帜
帝
帥
带
帧
師
席
帮
帳
帶
帷
常
帽
幀
幂
幅
幌
幔
幕
幟
幡
幢
幣
幫
干
平
年
并
幸
幹
幺
幻
幼
幽
幾
广
庄
庆
庇
床
序
庐
库
应
底
店
庙
庚
府
庞
废
庠
度
座
庫
庭
庵
庶
康
庸
庾
廁
廂
廈
廉
廊
廍
廓
廖
廚
廟
廠
廢
廣
廬
廳
延
廷
建
廿
开
弁
异
弃
弄
弈
弊
弋
式
弑
弒
弓
引
弗
弘
弛
弟
张
弥
弦
弧
弩
弭
弯
弱
張
強
弹
强
弼
彈
彌
彎
归
当
录
彗
彙
彝
形
彤
彥
彦
彧
彩
彪
彬
彭
彰
影
彷
役
彻
彼
彿
往
征
径
待
徇
很
徊
律
後
徐
徑
徒
得
徘
徙
從
徠
御
徨
復
循
徭
微
徳
徵
德
徹
徽
心
必
忆
忌
忍
忏
忒
志
忘
忙
忠
忤
忧
快
忱
念
忻
忽
忿
怀
态
怎
怒
怕
怖
怛
怜
思
怠
怡
急
性
怨
怪
怯
总
恂
恃
恆
恋
恍
恐
恒
恕
恙
恢
恣
恤
恥
恨
恩
恪
恬
恭
息
恰
恳
恶
恺
恼
恽
恿
悄
悅
悉
悌
悍
悔
悖
悚
悟
悠
患
悦
您
悬
悯
悲
悶
悸
悼
情
惇
惊
惑
惕
惜
惟
惠
惡
惣
惧
惨
惩
惮
惯
惰
惱
惲
想
惶
惹
惺
愁
愈
愉
愍
意
愔
愕
愚
愛
感
愤
愧
愫
愷
愿
慄
慈
態
慌
慎
慑
慕
慘
慚
慟
慢
慣
慧
慨
慮
慰
慶
慷
慾
憂
憎
憐
憑
憚
憤
憧
憨
憩
憫
憬
憲
憶
憾
懂
懇
懈
應
懋
懒
懦
懲
懶
懷
懸
懺
懼
懿
戀
戈
戊
戌
戍
戎
戏
成
我
戒
或
战
戚
戛
戟
戡
戦
截
戮
戰
戲
戳
戴
戶
户
戸
戾
房
所
扁
扇
扈
扉
手
才
扎
扑
扒
打
扔
托
扛
扣
执
扩
扫
扬
扭
扮
扯
扰
扳
扶
批
扼
找
承
技
抄
抉
把
抑
抒
抓
投
抖
抗
折
抚
抛
抢
护
报
抨
披
抬
抱
抵
抹
押
抽
拂
担
拆
拇
拉
拋
拌
拍
拏
拐
拒
拓
拔
拖
拗
拘
拙
拚
招
拜
拟
拢
拣
拥
拦
拨
择
括
拭
拮
拯
拱
拳
拷
拼
拾
拿
持
挂
指
按
挑
挖
挚
挛
挝
挞
挟
挠
挡
挣
挤
挥
挨
挪
挫
振
挹
挺
挽
挾
捆
捉
捍
捏
捐
捕
捞
损
捡
换
捣
捧
捨
据
捲
捷
捻
掀
掃
授
掉
掌
掏
排
掖
掘
掙
掛
掠
採
探
掣
接
控
推
掩
措
掳
掷
掸
掺
掾
揀
揄
揆
揉
描
提
插
揖
揚
換
握
揣
揪
揭
揮
援
揶
揽
搁
搅
損
搏
搖
搗
搜
搞
搬
搭
搶
携
摄
摆
摇
摊
摒
摔
摘
摧
摩
摯
摸
摹
摺
摻
撃
撇
撈
撐
撑
撒
撓
撕
撞
撣
撤
撥
撫
播
撰
撲
撻
撼
撿
擁
擂
擄
擅
擇
擊
擋
操
擎
擒
擔
擘
據
擠
擢
擦
擬
擱
擲
擴
擺
擾
攀
攏
攔
攘
攜
攝
攣
攤
攪
攫
攬
支
收
攸
改
攻
放
政
故
效
敌
敍
敎
敏
救
敕
敖
敗
敘
教
敛
敝
敞
敢
散
敦
敬
数
敲
整
敵
敷
數
斂
斃
文
斋
斌
斐
斑
斗
料
斛
斜
斟
斡
斤
斥
斧
斩
斬
断
斯
新
斷
方
於
施
旁
旃
旅
旋
旌
族
旗
无
既
日
旦
旧
旨
早
旬
旭
旱
时
旷
旺
旻
旼
昀
昂
昆
昇
昉
昊
昌
明
昏
易
昔
昕
昙
星
映
春
昧
昨
昭
是
昱
昴
昵
昶
显
晁
時
晃
晉
晋
晏
晒
晓
晔
晕
晖
晗
晚
晝
晞
晟
晤
晦
晨
普
景
晰
晴
晶
晷
智
暂
暄
暈
暉
暐
暑
暖
暗
暠
暢
暧
暨
暫
暮
暱
暴
暹
曄
曆
曇
曉
曖
曙
曜
曝
曠
曦
曬
曰
曲
曳
更
曷
書
曹
曼
曾
替
最
會
月
有
朋
服
朐
朔
朕
朗
望
朝
期
朦
朧
木
未
末
本
札
术
朱
朴
朵
机
朽
杀
杂
权
杆
杉
李
杏
材
村
杓
杖
杜
杞
束
杠
条
来
杨
杭
杯
杰
東
杲
杵
杷
杼
松
板
极
构
枇
枉
枋
析
枕
林
枚
果
枝
枢
枣
枪
枫
枭
枯
架
枷
柄
柏
某
柑
染
柔
柘
柚
柜
柝
柞
柠
查
柩
柬
柯
柱
柳
柴
柵
柿
栃
栅
标
栈
栉
栋
栎
栏
树
栓
栖
栗
校
栢
栩
株
样
核
根
格
栽
栾
桀
桂
桃
桅
框
案
桌
桐
桑
桓
桔
桢
档
桥
桦
桧
桨
桩
桶
桿
梁
梅
梓
梗
條
梟
梢
梦
梧
梨
梭
梯
械
梳
梵
梶
检
棄
棉
棋
棍
棒
棕
棗
棘
棚
棟
棠
棣
棧
棨
森
棱
棲
棵
棺
棻
椅
椋
植
椎
椒
椭
椰
椴
椽
椿
楊
楓
楔
楚
楞
楠
楣
楨
楫
業
楯
極
楷
楸
楹
楼
楽
概
榄
榆
榈
榊
榎
榔
榕
榘
榛
榜
榨
榭
榮
榴
榷
榻
槃
構
槌
槍
槎
槐
槓
槛
槟
槭
槳
槻
槽
槿
樁
樂
樊
樋
樑
樓
標
樞
樟
模
樣
横
樫
樱
樵
樸
樹
樺
樽
橄
橇
橈
橋
橐
橘
橙
機
橡
橢
橫
檀
檄
檎
檐
檔
檗
檜
檢
檬
檯
檳
檸
檻
櫃
櫓
櫚
櫛
櫟
櫥
櫻
欄
權
欒
欖
欠
次
欢
欣
欧
欲
欺
欽
款
歆
歇
歉
歌
歎
歐
歙
歡
止
正
此
步
武
歧
歩
歪
歲
歷
歸
歹
死
歼
歿
殃
殆
殇
殉
殊
残
殖
殘
殡
殤
殭
殯
殲
殴
段
殷
殺
殼
殿
毀
毁
毅
毆
毋
母
毎
每
毒
毓
比
毕
毗
毘
毙
毛
毫
毬
毯
氈
氏
氐
民
氓
气
氙
氛
氟
氢
氣
氦
氧
氨
氫
氮
氯
氰
水
永
氹
氾
汀
汁
求
汇
汉
汎
汐
汕
汗
汙
汛
汜
汝
汞
江
池
污
汤
汨
汪
汰
汲
汴
汶
決
汽
汾
沁
沂
沃
沅
沆
沈
沉
沌
沐
沒
沓
沔
沖
沙
沛
沟
没
沢
沥
沦
沧
沪
沫
沭
沮
沱
河
沸
油
治
沼
沽
沾
沿
況
泄
泉
泊
泌
泓
法
泗
泛
泠
泡
波
泣
泥
注
泪
泮
泰
泳
泵
泷
泸
泻
泼
泽
泾
洁
洄
洋
洒
洗
洙
洛
洞
津
洩
洪
洮
洱
洲
洵
洸
洹
活
洼
洽
派
流
浅
浆
浇
浊
测
济
浏
浑
浒
浓
浔
浙
浚
浜
浣
浦
浩
浪
浬
浮
浴
海
浸
涂
涅
涇
消
涉
涌
涎
涓
涕
涛
涝
涟
涡
涤
润
涧
涨
涩
涪
涯
液
涵
涸
涼
涿
淀
淄
淅
淆
淇
淋
淑
淖
淘
淚
淝
淞
淡
淤
淦
淨
淪
淫
淮
深
淳
淵
混
淹
淺
添
淼
清
渊
渍
渎
渐
渔
渗
渚
減
渝
渠
渡
渣
渤
渥
渦
温
測
渭
港
渲
渴
游
渺
渾
湃
湄
湊
湍
湖
湘
湛
湟
湧
湮
湯
湳
湾
湿
溃
溅
溉
源
準
溜
溝
溟
溢
溥
溧
溪
溫
溯
溴
溶
溺
滁
滂
滄
滅
滇
滋
滌
滎
滑
滔
滕
滘
滙
滚
滞
满
滤
滥
滦
滨
滩
滬
滯
滲
滴
滸
滾
滿
漁
漂
漆
漏
漓
演
漕
漠
漢
漣
漩
漪
漫
漬
漯
漱
漲
漳
漸
漾
漿
潁
潇
潍
潑
潔
潘
潛
潜
潞
潟
潢
潤
潦
潭
潮
潯
潰
潼
澀
澂
澄
澆
澈
澍
澎
澗
澜
澡
澤
澧
澱
澳
澹
激
濁
濂
濃
濑
濒
濕
濛
濟
濠
濡
濤
濫
濬
濮
濯
濰
濱
濺
濾
瀆
瀉
瀋
瀏
瀑
瀕
瀘
瀚
瀛
瀝
瀟
瀧
瀨
瀬
瀾
灌
灏
灑
灘
灝
灞
灣
火
灭
灯
灰
灵
灶
灸
灼
災
灾
灿
炀
炅
炉
炊
炎
炒
炔
炘
炙
炜
炫
炬
炭
炮
炯
炱
炳
炸
点
為
炼
炽
烁
烂
烃
烈
烏
烘
烙
烛
烟
烤
烦
烧
烨
烫
热
烯
烴
烷
烹
烽
焉
焊
焕
焘
焙
焚
焜
無
焦
焯
焰
然
煇
煉
煊
煌
煎
煒
煙
煜
煞
煤
煥
煦
照
煩
煬
煮
煲
煽
熄
熊
熏
熒
熔
熙
熟
熬
熱
熵
熹
熾
燁
燃
燈
燊
燎
燒
燕
燙
營
燥
燦
燧
燭
燮
燼
燾
燿
爆
爍
爐
爛
爨
爪
爬
爭
爰
爱
爲
爵
父
爷
爸
爹
爺
爻
爽
爾
牆
片
版
牌
牒
牙
牛
牟
牠
牡
牢
牧
物
牲
牵
特
牺
牽
犀
犁
犍
犛
犢
犧
犬
犯
状
犹
狀
狂
狄
狐
狒
狗
狙
狠
狡
狩
独
狭
狮
狱
狸
狹
狼
猎
猕
猖
猗
猛
猜
猝
猥
猩
猪
猫
献
猴
猶
猷
猾
猿
獄
獅
獎
獐
獠
獨
獲
獵
獸
獺
獻
獼
獾
玄
率
玉
王
玖
玛
玟
玠
玥
玩
玫
玮
环
现
玲
玳
玺
玻
珀
珂
珅
珈
珉
珊
珍
珏
珑
珙
珞
珠
珣
珥
珩
珪
班
珮
珲
現
球
琅
理
琇
琉
琊
琏
琐
琚
琛
琢
琥
琦
琨
琪
琬
琮
琰
琳
琴
琵
琶
琼
瑀
瑁
瑄
瑋
瑕
瑗
瑙
瑚
瑛
瑜
瑞
瑟
瑠
瑣
瑤
瑩
瑪
瑭
瑯
瑰
瑶
瑾
璀
璁
璃
璇
璉
璋
璐
璘
璜
璞
璟
璠
璧
璨
璩
環
璽
璿
瓊
瓌
瓏
瓒
瓘
瓚
瓜
瓢
瓣
瓦
瓮
瓯
瓶
瓷
甄
甌
甑
甕
甘
甚
甜
生
產
産
甥
用
甩
甫
甬
甯
田
由
甲
申
电
男
甸
町
画
畅
畈
界
畏
畔
留
畜
畝
畠
畢
略
番
畫
異
畲
畴
當
畸
畿
疃
疆
疇
疊
疋
疏
疑
疗
疚
疟
疣
疤
疫
疮
疯
疱
疲
疵
疸
疹
疼
疽
疾
病
症
痊
痒
痔
痕
痘
痙
痛
痞
痢
痣
痪
痰
痴
痹
痺
瘀
瘋
瘍
瘓
瘟
瘠
瘡
瘤
瘦
瘧
瘫
瘴
瘾
療
癇
癌
癖
癡
癢
癫
癬
癮
癱
癲
癸
登
發
白
百
皂
的
皆
皇
皈
皋
皎
皓
皖
皝
皮
皱
皺
皿
盂
盃
盆
盈
益
盎
盏
盐
监
盒
盔
盖
盗
盘
盛
盜
盞
盟
盡
監
盤
盧
盪
目
盯
盱
盲
直
相
盼
盾
省
眉
看
眙
眞
真
眠
眩
眶
眷
眺
眼
眾
着
睇
睐
睛
睞
睡
睢
督
睦
睪
睫
睹
睽
睾
睿
瞄
瞎
瞒
瞞
瞧
瞩
瞪
瞬
瞭
瞰
瞳
瞻
瞿
矗
矚
矛
矜
矢
矣
知
矩
矫
短
矮
矯
石
矶
矽
矿
码
砂
砌
砍
研
砖
砚
砥
砧
砲
破
砷
砸
砺
砾
础
硅
硒
硕
硝
硤
硫
硬
确
硯
硼
碁
碇
碉
碌
碍
碎
碑
碓
碗
碘
碚
碟
碣
碧
碩
碰
碱
碳
確
碼
碾
磁
磅
磊
磋
磐
磚
磡
磨
磯
磷
磺
礁
礎
礙
礦
礪
礫
示
礼
社
祀
祁
祂
祇
祈
祉
祐
祕
祖
祗
祚
祜
祝
神
祟
祠
祥
票
祭
祯
祷
祸
祺
祿
禀
禁
禄
禅
禍
禎
福
禕
禛
禦
禧
禪
禮
禰
禱
禹
禺
离
禽
禾
禿
秀
私
秃
秉
秋
种
科
秒
秘
租
秣
秤
秦
秧
秩
积
称
移
秽
稀
稅
程
稍
税
稔
稗
稙
稚
稜
稟
稠
稣
種
稱
稳
稷
稻
稼
稽
稿
穀
穆
穌
積
穎
穗
穢
穩
穫
穰
穴
究
穷
穹
空
穿
突
窃
窄
窈
窑
窒
窖
窗
窘
窜
窝
窟
窥
窦
窩
窪
窮
窯
窺
窿
竄
竇
竊
立
竑
竖
站
竞
竟
章
竣
童
竭
端
競
竹
竺
竿
笃
笈
笋
笏
笑
笔
笙
笛
笞
笠
符
笨
第
笹
笺
笼
筆
等
筋
筍
筏
筐
筑
筒
答
策
筛
筝
筠
筱
筲
筵
筷
筹
签
简
箇
箋
箍
箏
箐
箔
箕
算
管
箭
箱
箴
節
範
篆
篇
築
篙
篝
篡
篤
篩
篮
篱
篷
簇
簡
簧
簪
簫
簷
簸
簽
簾
簿
籃
籌
籍
籠
籤
籬
籲
米
类
籽
粉
粒
粗
粘
粟
粤
粥
粧
粪
粮
粱
粲
粵
粹
粽
精
粿
糊
糕
糖
糙
糜
糞
糟
糠
糧
糯
系
糾
紀
紂
約
紅
紇
紊
紋
納
紐
紓
純
紗
紙
級
紛
素
紡
索
紧
紫
紮
累
細
紳
紹
終
絃
組
結
絕
絞
絡
絢
給
絨
絮
統
絲
絳
絶
絹
綁
綏
經
綜
綠
綢
綦
綫
綬
維
綱
網
綴
綸
綺
綻
綽
綾
綿
緊
緋
緒
線
緝
緞
締
緣
編
緩
緬
緯
練
緹
緻
縉
縊
縛
縣
縫
縮
縱
縷
縻
總
績
繁
繆
繇
織
繕
繞
繡
繩
繪
繫
繭
繳
繹
繼
纂
續
纏
纓
纖
纜
纠
红
纤
纥
约
级
纪
纬
纯
纱
纲
纳
纵
纶
纷
纸
纹
纺
纽
线
练
组
绅
细
织
终
绊
绍
绎
经
绑
绒
结
绕
绘
给
绚
绛
络
绝
绞
统
绢
绣
绥
继
绩
绪
绫
续
绮
绯
绰
绳
维
绵
绶
绸
综
绿
缀
缅
缆
缉
缎
缓
缔
缕
编
缘
缙
缚
缝
缠
缢
缨
缩
缪
缮
缴
缸
缺
缽
罂
罄
罌
罐
网
罔
罕
罗
罚
罢
罩
罪
置
罰
署
罵
罷
罹
羁
羅
羈
羊
羌
美
羔
羚
羞
羟
羡
羣
群
羥
羧
羨
義
羯
羰
羲
羹
羽
羿
翁
翅
翊
翌
翎
習
翔
翘
翟
翠
翡
翦
翩
翰
翱
翳
翹
翻
翼
耀
老
考
者
耆
而
耍
耐
耒
耕
耗
耘
耙
耦
耳
耶
耸
耻
耽
耿
聂
聆
聊
聋
职
联
聖
聘
聚
聞
聪
聯
聰
聲
聳
聶
職
聽
聾
聿
肃
肄
肅
肆
肇
肉
肋
肌
肖
肘
肚
肛
肝
肠
股
肢
肤
肥
肩
肪
肯
肱
育
肺
肽
肾
肿
胀
胁
胃
胄
胆
背
胎
胖
胚
胜
胞
胡
胤
胥
胪
胭
胰
胱
胶
胸
胺
能
脂
脅
脆
脈
脉
脊
脏
脐
脑
脖
脚
脛
脫
脯
脱
脷
脸
脹
脾
腈
腊
腋
腌
腎
腐
腑
腓
腔
腕
腥
腦
腫
腮
腰
腱
腳
腸
腹
腺
腻
腾
腿
膀
膏
膚
膛
膜
膝
膠
膦
膨
膩
膳
膺
膽
膿
臀
臂
臆
臉
臍
臘
臚
臟
臣
臥
臧
臨
自
臭
至
致
臺
臻
臼
舂
舅
舆
與
興
舉
舊
舌
舍
舒
舔
舖
舛
舜
舞
舟
航
舫
般
舰
舱
舵
舶
舷
船
舺
艇
艉
艋
艏
艘
艙
艦
艮
良
艰
艱
色
艳
艷
艺
艾
节
芋
芍
芎
芒
芙
芜
芝
芥
芦
芩
芬
芭
芮
芯
花
芳
芷
芸
芹
芻
芽
芾
苇
苍
苏
苑
苓
苔
苗
苛
苞
苟
苣
若
苦
苫
苯
英
苳
苴
苷
苹
苻
苾
茂
范
茄
茅
茉
茎
茗
茛
茜
茧
茨
茫
茱
茲
茴
茵
茶
茸
茹
荀
荃
荆
草
荊
荐
荒
荔
荖
荚
荟
荡
荣
荥
荧
荫
药
荷
荻
荼
莅
莆
莉
莊
莎
莒
莓
莖
莘
莞
莢
莪
莫
莱
莲
获
莹
莺
莽
莿
菀
菁
菅
菇
菈
菊
菌
菏
菖
菘
菜
菟
菠
菩
華
菰
菱
菲
菴
菸
萃
萄
萇
萊
萌
萍
萎
萘
萝
萤
营
萧
萨
萬
萱
萸
萼
落
葆
葉
著
葛
葡
董
葦
葫
葬
葭
葱
葳
葵
葺
蒂
蒋
蒐
蒔
蒙
蒜
蒞
蒨
蒯
蒲
蒴
蒸
蒼
蒿
蓀
蓁
蓄
蓉
蓋
蓑
蓓
蓝
蓟
蓬
蓮
蓼
蔑
蔓
蔔
蔗
蔚
蔡
蔣
蔥
蔬
蔭
蔵
蔷
蔻
蔽
蕃
蕈
蕉
蕊
蕎
蕙
蕨
蕩
蕪
蕭
蕲
蕴
蕾
薄
薇
薈
薊
薑
薔
薙
薛
薦
薨
薩
薪
薯
薰
薹
藉
藍
藏
藐
藓
藔
藕
藜
藝
藤
藥
藩
藹
藺
藻
蘄
蘆
蘇
蘊
蘋
蘑
蘚
蘭
蘿
虎
虏
虐
虑
虔
處
虚
虛
虜
虞
號
虢
虧
虫
虬
虱
虹
虽
虾
蚀
蚁
蚂
蚊
蚌
蚓
蚕
蚜
蚣
蚤
蚩
蚵
蚶
蛇
蛊
蛋
蛎
蛙
蛛
蛞
蛟
蛤
蛭
蛮
蛹
蛺
蛻
蛾
蜀
蜂
蜃
蜆
蜈
蜒
蜓
蜕
蜗
蜘
蜚
蜜
蜡
蜢
蜥
蜱
蜴
蜷
蜻
蝇
蝉
蝌
蝎
蝕
蝗
蝙
蝠
蝦
蝨
蝰
蝴
蝶
蝸
蝽
螂
螃
螈
融
螞
螢
螯
螳
螺
蟄
蟋
蟑
蟒
蟠
蟬
蟲
蟹
蟻
蟾
蠅
蠍
蠕
蠟
蠡
蠢
蠣
蠱
蠶
蠻
血
衅
行
衍
術
衔
街
衙
衛
衝
衞
衡
衢
衣
补
表
衫
衬
衮
衰
衷
袁
袂
袈
袋
袍
袒
袖
袜
袞
被
袭
袱
裁
裂
装
裏
裔
裕
裘
裙
補
裝
裟
裡
裤
裨
裳
裴
裸
裹
製
複
褐
褒
褚
褥
褪
褫
褲
褶
褻
襄
襖
襪
襯
襲
西
要
覃
覆
見
規
覓
視
親
覲
覺
覽
觀
见
观
规
觅
视
览
觉
觐
角
解
触
觸
言
訂
計
訊
討
訓
訖
託
記
訛
訝
訟
訣
訥
訪
設
許
訴
訶
診
註
詐
詔
評
詛
詞
詠
詡
詢
詣
試
詩
詭
詮
詰
話
該
詳
詹
誅
誇
誉
誌
認
誓
誕
誘
語
誠
誡
誣
誤
誥
誦
誨
說
説
誰
課
誼
調
談
請
諍
諏
諒
論
諜
諡
諦
諧
諫
諭
諮
諱
諷
諸
諺
諾
謀
謁
謂
謊
謎
謐
謗
謙
講
謝
謠
謨
謫
謬
謹
證
譏
識
譙
譚
譜
警
譬
譯
議
譴
護
譽
讀
變
讒
讓
讚
讞
计
订
认
讥
讨
让
讫
训
议
讯
记
讲
讳
讶
讷
许
讹
论
讼
讽
设
访
诀
证
诃
评
诅
识
诈
诉
诊
词
诏
译
诒
试
诗
诘
诚
诛
话
诞
诠
诡
询
诣
该
详
诩
诫
诬
语
误
诰
诱
诲
说
诵
请
诸
诺
读
诽
课
谁
调
谅
谈
谊
谋
谍
谎
谏
谐
谒
谓
谔
谕
谚
谛
谜
谟
谢
谣
谤
谥
谦
谨
谪
谬
谭
谯
谱
谴
谷
谿
豁
豆
豈
豎
豐
豔
豚
象
豪
豫
豬
豹
豺
貂
貌
貓
貘
貝
貞
負
財
貢
貧
貨
販
貪
貫
責
貯
貳
貴
貶
買
貸
費
貼
貽
貿
賀
賁
賂
賃
賄
資
賈
賊
賑
賓
賜
賞
賠
賡
賢
賣
賤
賦
質
賭
賴
賺
購
賽
贅
贈
贊
贍
贏
贓
贖
贛
贝
贞
负
贡
财
责
贤
败
账
货
质
贩
贪
贫
贬
购
贮
贯
贰
贱
贲
贴
贵
贷
贸
费
贺
贻
贼
贾
贿
赁
赂
赃
资
赈
赉
赋
赌
赎
赏
赐
赓
赔
赖
赚
赛
赞
赠
赢
赣
赤
赦
赫
赭
走
赴
赵
赶
起
趁
超
越
趋
趕
趙
趟
趣
趨
足
趴
趾
跃
跆
跋
跌
跑
跖
跛
距
跟
跡
跤
跨
跪
路
跳
践
跻
踊
踏
踐
踝
踞
踢
踩
踪
踴
踵
蹂
蹄
蹇
蹈
蹊
蹟
蹤
蹦
蹲
蹴
蹼
躁
躋
躍
身
躬
躯
躲
躺
軀
車
軋
軌
軍
軒
軔
軛
軟
軫
軸
軻
軼
軾
較
載
輒
輓
輔
輕
輛
輜
輝
輟
輦
輩
輪
輯
輸
輻
輾
輿
轄
轅
轉
轍
轎
轟
车
轧
轨
轩
转
轭
轮
软
轰
轴
轶
轸
轻
轼
载
轿
较
辄
辅
辆
辈
辉
辍
辐
辑
输
辕
辖
辗
辙
辛
辜
辞
辟
辣
辦
辨
辩
辫
辭
辮
辯
辰
辱
農
边
辻
辽
达
迁
迂
迄
迅
过
迈
迎
运
近
返
还
这
进
远
违
连
迟
迥
迦
迩
迪
迫
迭
述
迴
迷
迹
迺
追
退
送
适
逃
逅
逆
选
逊
逍
透
逐
递
途
逗
這
通
逛
逝
逞
速
造
逢
連
逮
週
進
逵
逸
逻
逼
逾
遁
遂
遇
遊
運
遍
過
遏
遐
道
達
違
遗
遙
遜
遞
遠
遣
遥
適
遭
遮
遲
遴
遵
遷
選
遹
遺
遼
遽
避
邀
邁
邃
還
邇
邈
邊
邏
邑
邓
邕
邛
邝
邠
邢
那
邦
邨
邪
邬
邮
邯
邰
邱
邳
邵
邸
邹
邺
邻
邾
郁
郃
郊
郎
郑
郗
郜
郝
郞
郡
郢
郤
郧
部
郭
郯
郴
郵
郸
都
鄂
鄉
鄒
鄔
鄖
鄙
鄚
鄞
鄢
鄧
鄭
鄯
鄰
鄱
鄲
鄴
鄺
酉
酋
酌
配
酐
酒
酗
酚
酢
酣
酥
酪
酬
酮
酯
酰
酱
酵
酶
酷
酸
酿
醃
醇
醉
醋
醍
醐
醒
醚
醛
醜
醣
醫
醬
醮
醯
醴
釀
釁
采
釉
释
釋
里
重
野
量
釐
金
釗
釘
釜
針
釣
釧
釵
鈉
鈍
鈔
鈕
鈞
鈣
鈦
鈴
鈷
鈺
鈾
鈿
鉀
鉅
鉉
鉑
鉗
鉛
鉞
鉢
鉤
鉴
鉻
銀
銅
銑
銓
銖
銘
銜
銨
銮
銳
銷
銹
鋁
鋅
鋒
鋤
鋪
鋰
鋸
鋼
錄
錐
錕
錘
錚
錠
錢
錦
錨
錫
錮
錯
錳
錶
鍊
鍋
鍍
鍔
鍛
鍬
鍵
鍾
鎂
鎊
鎏
鎔
鎖
鎗
鎢
鎧
鎬
鎮
鎳
鏈
鏗
鏞
鏟
鏡
鏢
鏽
鐘
鐮
鐳
鐵
鐸
鑄
鑑
鑒
鑣
鑫
鑰
鑲
鑼
鑽
鑾
鑿
针
钉
钊
钏
钓
钗
钙
钚
钛
钜
钝
钞
钟
钠
钢
钥
钦
钧
钨
钩
钮
钰
钱
钳
钴
钵
钺
钻
钾
铀
铁
铂
铃
铅
铉
铎
铜
铝
铠
铨
铬
铭
铮
铲
铵
银
铸
铺
链
铿
销
锁
锂
锄
锅
锈
锋
锌
锐
错
锚
锟
锡
锢
锣
锤
锥
锦
锭
键
锯
锰
锷
锺
锻
镀
镁
镇
镍
镐
镑
镕
镖
镛
镜
镭
镰
镶
長
长
門
閃
閉
開
閏
閑
閒
間
閔
閘
閣
閤
閥
閨
閩
閬
閭
閱
閻
闆
闊
闍
闐
闕
闖
關
闡
闢
门
闪
闫
闭
问
闯
闰
闲
间
闵
闷
闸
闹
闺
闻
闽
闾
阀
阁
阅
阆
阇
阉
阎
阐
阔
阗
阙
阜
队
阡
阪
阮
阯
阱
防
阳
阴
阵
阶
阻
阿
陀
陂
附
际
陆
陇
陈
陋
陌
降
限
陕
陛
陝
陞
陟
陡
院
陣
除
陨
险
陪
陰
陲
陳
陵
陶
陷
陸
陽
隅
隆
隈
隊
隋
隍
階
随
隐
隔
隕
隗
隘
隙
際
障
隧
隨
險
隱
隴
隶
隷
隸
隻
隼
隽
难
雀
雁
雄
雅
集
雇
雉
雋
雌
雍
雏
雒
雕
雖
雙
雛
雜
雞
離
難
雨
雪
雯
雲
雳
零
雷
雹
電
雾
需
霄
霆
震
霉
霍
霏
霓
霖
霜
霞
霧
霰
露
霸
霹
霽
霾
靂
靄
靈
青
靓
靖
静
靚
靛
靜
非
靠
靡
面
革
靳
靶
靺
靼
鞅
鞋
鞍
鞏
鞑
鞘
鞠
鞨
鞭
鞮
韃
韋
韌
韓
韜
韦
韧
韩
韬
韭
音
韵
韶
韻
響
頁
頂
頃
項
順
須
頊
頌
預
頑
頒
頓
頗
領
頜
頡
頤
頭
頰
頸
頹
頻
顆
題
額
顏
顒
顗
願
顛
類
顥
顧
顫
顯
顱
页
顶
顷
项
顺
须
顽
顾
顿
颁
颂
预
颅
领
颇
颈
颉
颊
颌
颍
颐
频
颓
颖
颗
题
颚
颜
额
颠
颤
風
颱
颶
飄
飆
风
飓
飘
飙
飛
飞
食
飢
飪
飯
飲
飼
飽
飾
餃
餅
餉
養
餐
餓
餘
餚
餡
館
餵
餾
饅
饉
饋
饑
饒
饗
饥
饪
饭
饮
饰
饱
饲
饵
饶
饷
饺
饼
饿
馀
馅
馆
馈
馏
首
馗
香
馥
馨
馬
馭
馮
馱
馳
馴
駁
駐
駒
駕
駙
駛
駝
駭
駱
駿
騎
騙
騫
騰
騷
驃
驅
驊
驍
驒
驕
驗
驚
驛
驟
驢
驤
驥
驪
马
驭
驮
驯
驰
驱
驳
驴
驶
驸
驹
驻
驼
驾
驿
骁
骂
骄
骅
骆
骇
骊
验
骏
骑
骗
骚
骞
骠
骤
骥
骧
骨
骰
骷
骸
骼
髅
髏
髒
髓
體
高
髦
髮
髯
髻
鬃
鬆
鬍
鬚
鬣
鬥
鬧
鬱
鬼
魁
魂
魄
魅
魏
魔
魚
魨
魮
魯
魷
鮃
鮋
鮑
鮠
鮡
鮨
鮫
鮭
鮮
鯉
鯊
鯖
鯙
鯛
鯡
鯤
鯨
鯰
鯽
鰂
鰈
鰍
鰓
鰕
鰨
鰭
鰲
鰺
鰻
鱂
鱇
鱈
鱉
鱒
鱔
鱗
鱧
鱨
鱲
鱷
鱸
鱼
鲀
鲁
鲈
鲍
鲑
鲜
鲤
鲨
鲫
鲱
鲷
鲸
鳃
鳄
鳅
鳉
鳌
鳍
鳕
鳖
鳗
鳚
鳞
鳢
鳥
鳩
鳳
鳴
鳶
鴉
鴛
鴞
鴦
鴨
鴻
鴿
鵑
鵙
鵜
鵝
鵠
鵡
鵬
鵰
鵲
鶇
鶯
鶴
鶻
鷗
鷲
鷹
鷺
鸚
鸞
鸟
鸠
鸡
鸢
鸣
鸥
鸦
鸫
鸭
鸮
鸯
鸳
鸽
鸾
鸿
鹃
鹅
鹉
鹊
鹏
鹘
鹛
鹤
鹦
鹫
鹭
鹰
鹵
鹹
鹼
鹽
鹿
麋
麒
麓
麗
麝
麟
麥
麦
麴
麵
麻
麼
麽
麾
黃
黄
黍
黎
黏
黑
黒
黔
默
黛
黜
點
黨
黯
黴
黻
鼎
鼐
鼓
鼠
鼩
鼬
鼻
齊
齋
齐
齒
齡
齣
齦
齧
齿
龄
龈
龍
龐
龔
龕
龙
龚
龛
龜
龟
龢
이
︰
﹐
﹑
﹔
﹕
﹝
﹞
﹣
！
＂
＃
％
＆
（
）
＊
＋
，
－
．
／
１
２
３
４
５
６
：
；
＜
＝
＞
？
［
］
｜
～
｢
｣
･
de
the
in
##s
of
la
en
and
##e
##a
to
##n
##i
The
der
un
di
que
##t
is
el
se
del
die
##r
und
et
na
##o
was
on
##en
är
##u
des
den
le
for
da
je
van
as
##m
sa
do
10
an
les
una
il
by
og
##y
2011
La
at
##l
##d
er
al
##er
von
In
du
with
av
##es
med
con
##k
2010
est
och
per
##а
2000
som
los
por
2012
12
het
from
that
De
no
11
2014
2009
es
20
su
ISBN
ja
2007
2008
km
##an
2013
15
om
im
com
##ta
2006
dan
##te
18
##na
para
mit
2015
als
El
como
his
ha
##da
##ing
une
24
Den
Die
##h
##ne
##g
das
En
30
##in
##re
14
par
13
16
##us
2005
##de
2016
és
au
25
000
dans
he
che
##on
2004
em
dem
##ch
19
it
2001
17
°C
til
2002
han
##ia
Le
Il
wurde
##le
las
della
New
##ra
ein
##is
um
si
2003
21
ist
var
Species
are
2017
op
zu
##z
22
für
##et
were
##os
od
son
An
26
World
##do
which
##ja
va
pour
ve
1999
##ti
sur
23
auf
##la
là
##é
II
##ed
Life
war
za
##to
##se
##ni
##no
or
be
28
det
##c
##ar
qui
He
eine
az
te
##va
1998
27
mm
##nt
##ma
##ka
sich
Catalogue
had
##ng
It
also
so
##je
29
1996
##li
1997
am
has
km²
dos
ur
##ie
##ri
entre
##as
University
lo
100
eta
##p
era
31
ni
##al
##j
##ce
1990
John
first
voor
##ca
##ment
os
met
ou
2018
all
1995
##ko
aus
1991
##ó
1994
Der
non
foi
##si
1992
##em
af
har
##ly
their
ar
##b
film
avec
50
1993
one
##um
##sa
bis
Les
San
##ă
not
but
its
##v
ir
who
ny
York
##ga
##ς
her
##it
ang
Mexico
over
bei
ser
www
nach
dei
##mi
##ki
alla
po
auch
History
door
UK
1989
##ge
##at
dat
runt
have
this
40
American
##ba
1980
ed
##в
species
más
##í
##ur
este
1988
ya
##ke
two
parte
fue
ne
http
Ang
amb
bir
##st
plus
ITIS
##ro
Press
##el
under
##f
On
1986
zum
1987
1985
978
meter
men
##man
been
dell
ini
familia
din
September
1984
##ci
einer
có
Saint
sua
##ul
##ndo
album
1970
qu
United
ao
##mente
##ve
mais
werden
Annual
seu
genus
##ą
Kirk
oli
##me
fra
Reading
Los
Michael
sie
##den
##の
time
##za
##io
Bourgoin
NASA
1982
1983
##ów
Bailly
sont
III
1981
National
No
##á
after
1975
Det
##or
part
01
1945
dia
Das
1979
##nya
1972
come
##ya
red
##ten
other
Na
##x
France
they
sobre
##om
1978
William
tot
1968
1960
##di
1976
##kan
##ek
into
60
##ak
till
##ı
durch
##lo
##ung
ble
06
1977
1974
1973
May
nicht
Paris
##2
ka
##S
1971
org
Mer
August
zur
mai
##A
dal
up
ng
här
einem
This
new
aux
##ny
500
##ho
##1
oder
##ju
sind
landet
1969
Jean
International
Paul
City
##lar
##ji
200
April
att
wird
iz
ce
sin
Im
##go
more
nan
1967
pas
35
David
ei
##ts
US
##ción
1950
##co
TV
04
##ler
##à
man
Han
November
Robert
##tion
ma
1944
45
1962
London
lui
05
80
she
##ir
##ía
delle
St
1965
ad
when
32
65
été
sus
för
über
subspecies
due
##ku
cu
years
1964
1966
##C
States
fan
NGC
Het
##ze
later
##w
1961
##ter
07
ki
1941
As
Al
##3
##ë
County
1940
##ns
only
would
1939
##ik
einen
James
##ers
1963
kan
03
##ry
me
Es
Er
##sen
90
##des
##ha
70
year
Charles
##ban
##0
pa
during
where
ze
##rs
can
1958
between
out
wie
George
him
sono
millimeter
##ę
noten
##ben
juli
alle
##ren
##sta
ses
1956
##rt
about
Peter
1959
02
School
comme
1943
##tu
most
wurden
33
three
1948
fu
##ů
##am
##ou
##4
Earth
##ä
anche
ben
1942
made
##ria
ye
##ov
00
1957
1930
1920
##il
used
1954
##mo
09
vom
##wa
Un
##jo
forma
##és
##ica
##be
Se
##ion
durante
such
deux
08
known
ved
36
South
ta
nie
then
USA
##ken
1946
dass
You
Maria
##ina
34
final
1955
League
population
##land
1938
##lla
than
nu
1953
##ine
##T
300
IV
1949
Thomas
1918
India
1952
All
State
##un
Oxford
familie
club
July
1947
més
elle
Richard
##che
June
team
Az
1936
unter
44
##P
##ner
##ic
care
second
##ł
zen
ca
Nel
Retrieved
##ok
##ig
##th
March
##nu
She
some
##ada
Santa
there
##ste
##ut
British
pe
Film
ke
West
data
##5
gli
area
##án
co
38
1937
##ció
born
400
any
became
##dos
##ton
serie
##que
vor
place
Berlin
##ty
##tes
including
1951
pod
##ble
37
##das
well
cm
##gi
##6
October
##nen
Jahr
General
through
being
##ní
North
season
##nte
waren
noch
##ll
doi
##ea
##res
Martin
##ant
January
Park
##ò
##vo
##ée
##né
1933
Love
##id
hat
ko
##ssa
database
Po
Society
cho
##E
##ck
tra
fost
pero
##les
##ning
##lle
1935
##ado
##R
##B
##ske
42
War
años
##gen
##I
##zi
1934
pro
1919
December
Em
##ot
##ist
64
bij
##nie
##ista
many
48
After
39
##der
##7
1914
nord
pp
##vi
Database
Europa
Club
Music
Grand
ci
name
Museum
against
prima
fait
volt
1932
Louis
##nia
1929
will
total
One
bi
Man
1928
them
ai
##berg
41
dalla
nur
##pe
world
ab
55
##pa
before
amin
original
family
series
won
1917
##L
43
while
ale
##9
José
single
##を
ont
Joseph
commune
uno
##nde
1931
cui
may
state
general
##tas
Records
desde
school
sous
solo
##8
Art
For
##ski
##O
base
##ent
via
nom
both
roce
hasta
seiner
stato
47
sowie
1924
75
##men
ex
work
worden
people
Encyclopedia
gran
##lu
local
mars
grande
America
Lake
1927
until
##ky
##ger
##G
##ão
##ý
College
Union
Ny
##du
1922
##cia
1925
cette
##ura
1921
To
wa
1926
contra
Van
##ii
##sk
sein
##ol
##ón
##ā
##ć
##ska
history
number
##ad
##D
nombre
seine
Jahre
##nes
##mento
bu
Am
primer
esta
Nach
1912
February
System
Award
King
anni
##M
Las
bat
hi
1923
mö
partir
51
52
Nacional
##tt
46
FC
##by
sem
##lt
##nd
juga
##N
ay
released
##ien
##ai
Elle
Cup
House
sig
called
played
Italia
está
same
también
##F
aber
1900
hatte
band
end
nos
River
49
asteroid
Sie
city
1910
Washington
##ach
Me
My
##are
China
même
Tour
Royal
His
four
##son
ing
Henry
ile
##ert
1913
village
##len
Pierre
based
##ischen
Dr
li
zwei
English
tre
vid
Italy
##ron
California
##ita
##ies
##ire
56
##ian
##ana
nome
Canada
##ě
##ú
re
##cht
Red
##he
était
##bi
CD
IC
principal
54
eines
Indonesia
kilometer
sud
game
##lich
Italian
##ン
##so
niet
anno
##ische
Smith
version
vez
##ks
après
##ud
##ru
tres
1915
public
être
Juan
dit
long
They
Cambridge
At
England
##q
Air
##au
sistema
##ier
##cy
nun
##mu
Center
BBC
There
##ida
Madrid
Australia
Best
sau
early
##K
año
ut
several
1911
Company
Don
Si
ville
ans
##ls
Black
Association
53
Christian
dont
##im
use
84
these
Hall
since
nog
150
Europe
Hans
ten
Festival
land
former
##ini
##V
UTC
##han
cada
go
Mai
1916
system
zwischen
guerra
##bo
Do
Daniel
pela
Roma
group
600
Francisco
##nin
wat
Jan
leur
##ation
1905
##tor
où
home
57
Da
1908
##dae
##ciones
found
58
station
fin
##ius
Census
East
Marie
Star
augusti
music
post
donde
national
high
set
Island
##dor
like
1907
##ux
mas
##vat
now
ra
##nda
Karl
##lik
Jahren
##idae
59
fut
Frank
Antonio
primera
##iu
Stadt
##ker
Central
##ė
ga
nei
##ang
Japan
French
kg
XIX
show
off
800
following
Estados
pelo
dieser
##ige
##ua
##chen
##ico
##ted
premier
European
ban
Bu
##ice
Open
site
major
##hi
vida
Band
Journal
gegen
1906
Od
art
1904
day
began
##ive
century
1909
##ling
each
##ity
##ej
we
##ata
located
High
##dir
District
ili
hän
Street
##sti
estado
Als
Oktober
Unidos
##át
##gan
seit
##ven
Zeit
95
novembre
Per
Edward
##zen
Division
net
service
##ui
held
autres
Population
Mark
##ei
Time
Land
aussi
Nord
Lee
##°
member
song
##rio
back
##era
85
agosto
Times
hans
##U
##rd
German
##nik
bien
Institute
deze
Is
sul
named
hun
seg
##ville
##sch
andere
government
120
Carlos
Group
##lan
depuis
unha
onde
##tan
nad
##ene
alors
Alexander
Live
62
XX
88
Hij
large
video
Modern
lugar
mot
Radio
Os
casa
age
##lor
également
##zo
##cie
company
##ure
life
##ley
district
Rio
##ran
Barcelona
São
país
production
line
72
meg
##ere
##ris
main
fr
First
##kin
##tte
mi
ali
Index
White
ainsi
Team
##ting
social
Information
##dan
Science
Una
took
##nce
left
siècle
Rock
Data
Op
jedoch
ordo
##áu
série
around
did
habitantes
could
1903
Mary
##bu
première
82
built
capital
1000
99
form
habitants
##tta
Friedrich
población
abril
##té
However
Ein
fa
##ber
250
66
News
region
town
From
##ale
86
Carl
ersten
lan
pre
##ス
zona
Angeles
##val
##で
Simon
tempo
finale
kom
famili
When
INSEE
##ère
##burg
rock
side
play
present
1901
63
##ah
partie
sy
VI
Brasil
viene
Pada
Su
Von
banda
Tom
##age
if
##sche
##tus
grupo
primo
Atlas
water
##ksi
etwa
Hill
##ique
kingdom
##ła
received
bio
Jones
##ás
Anna
##ano
1902
published
##ido
word
96
1890
61
67
Chicago
mar
ciudad
81
served
98
97
point
##ð
##ros
drei
Santiago
##liche
mort
List
Championship
Jack
##ió
Bureau
##ino
##mann
##cu
##nek
##dy
match
Awards
temps
Roman
Day
mu
include
top
Juli
700
cuando
##ü
68
##mer
because
Cerambycidae
etc
Juni
pri
mens
within
kann
Real
##ms
##ito
##tet
Son
##H
central
##inen
Por
along
marzo
##nej
five
Sa
##lı
83
record
ning
España
##jen
said
Internet
##ný
fueron
##ego
Albert
Culture
Marine
wieder
76
radio
orang
provincia
##ate
kam
obra
##nje
##ima
six
puis
important
##ium
##ens
92
##jos
director
italiano
PDF
members
Texas
Januar
last
mehr
million
small
Album
##ari
sido
Young
93
Big
died
program
football
What
1898
78
pel
Williams
##kt
Football
français
années
best
Walter
##ono
contre
71
Este
bila
media
91
##aan
##wy
otros
77
Party
Amerika
international
74
##lis
##leri
lors
jo
own
Indian
73
Vol
##zy
1897
During
1896
##rat
##lig
zo
vo
death
very
##ver
DVD
air
peut
Hän
1899
##gt
69
##ceae
vers
##we
Academy
inglés
87
##nja
building
##sten
##gu
yr
satu
Great
ela
Under
Sant
importante
##nis
1895
popular
Lac
lang
id
mis
##iert
control
Of
With
##č
##ld
Brown
third
##let
Johann
beim
##ques
ele
services
89
tym
Nam
Werner
still
Road
seinem
trois
##ké
todo
todos
álbum
##rum
mei
Bei
Kunze
Wilhelm
centre
##X
##pi
those
##ara
col
Cerro
##od
##ys
##tti
Top
fou
And
Church
children
Mit
Night
##ite
##pen
##per
vol
##ez
By
##og
ter
##ato
1889
country
seinen
vier
1880
##nak
ia
##use
Version
##ele
tak
included
jusqu
Jacques
mayor
book
94
diese
##nti
##ser
liegt
north
né
había
María
Army
lat
##ster
##schen
##ue
##ť
Germany
##sia
Asia
##ras
öster
##ret
Super
causa
points
79
Dezember
später
centro
wo
ano
1870
Grande
##än
##ova
##sko
##chi
type
##ile
ihre
President
Scott
tai
Luis
##isch
##sse
##tar
just
Council
##ane
##ija
Social
Australian
tiene
##iva
Prix
Guerra
Centre
twee
dove
tour
##ş
ces
Con
antes
Pedro
avant
Sir
Argentina
Max
led
Kanada
Ende
##ában
another
We
##bar
##ye
metros
comune
piano
Africa
comuna
So
near
después
title
see
norte
cual
##su
Liga
1886
old
often
tem
Iran
different
##rie
Windows
1885
très
##kom
##sel
März
Harry
Mr
Verlag
##ona
tanto
##mas
dar
##lichen
1894
##one
player
information
##ade
president
Department
down
Little
Arts
Portugal
segundo
Di
leta
nas
##ák
Power
##line
sen
##van
position
temporada
Research
1893
##ft
live
Meyer
##cha
Jr
1892
##dd
groupe
role
Blue
what
##net
ich
fins
Sciences
1891
##ais
##eur
VII
##ça
order
Israel
François
puede
Francia
##aren
web
car
late
tout
##ey
hoa
##ira
bet
described
Deutschland
##uk
poi
##lin
career
grand
##ore
heute
Men
you
Dans
##ena
##W
Global
Durante
##ise
Teil
poder
sunt
##vu
##est
eran
1888
tu
dann
110
XVIII
moved
##ika
##rn
Joe
##uje
plan
durant
Green
Lo
Universität
Adam
Good
Els
fel
##zu
hai
Wilson
volta
make
XVI
##uri
grandes
studio
##able
Co
caso
plusieurs
presidente
Creek
Manuel
##sis
monde
tipo
Ed
sans
##ité
##ná
again
Nova
IUCN
period
##vel
##een
erste
ihm
##ali
Arthur
##ring
##ves
mundo
Instituto
##α
música
south
support
Bay
##ses
Copa
Chris
##ges
Bill
avril
quatre
Western
##ard
Jackson
way
Afrika
much
ho
Gemeinde
##ente
ils
Song
power
Eine
##ih
##ín
women
gant
model
konnte
father
musical
##ham
número
##ende
mismo
##tra
##ž
Au
Serie
##ncia
similar
Two
house
Law
##lia
Chile
así
##ps
html
fois
ary
##eri
Her
##ès
1878
##rea
berg
Series
Mae
Johnson
Names
established
even
1883
maj
These
##ées
law
Li
##ati
article
États
##sh
má
##ds
Mike
Platz
Gran
Michel
##ix
##tic
level
1887
Kirche
anderen
Thompson
haben
##nom
face
Giovanni
Cette
Chinese
München
far
Ben
Register
##ì
Long
Steve
##ami
##ula
suite
##ide
##tos
##ación
##ee
##ala
Philip
##ons
among
hier
##cí
##cs
games
opera
1860
cap
Ce
##è
Media
Dit
Office
##met
style
Sud
community
circa
##het
Paulo
##op
##tik
1884
##fa
fino
##nza
##via
Heinrich
full
##yn
using
came
Force
##mos
##ford
130
foram
##cher
##ism
written
Taylor
##issa
development
##ç
construction
##field
natural
sai
gan
Februar
list
php
historia
##ss
1848
debut
1882
1881
juin
produced
##tis
fine
muy
##ici
Lord
went
right
Show
next
##heid
modern
started
become
Russian
avait
times
famille
Columbia
##nan
##rna
année
case
##eg
tous
##urs
Russell
ru
min
##tat
real
área
Service
Anne
Are
##cija
tema
##tura
Para
##ous
students
ihrer
##ell
##ados
bereits
given
avoir
Une
1st
1871
än
Roger
lain
##ës
##ο
Ali
##po
Billboard
nordost
married
##mus
UEFA
janvier
uz
##rer
Bank
marca
Women
##nn
Kim
material
encuentra
900
##mes
various
##nim
average
Your
fire
septembre
Plants
##ingen
##ese
Year
round
Otto
take
website
##že
head
##ù
##bra
Bob
##cio
gov
origine
morte
dort
let
class
junto
##ht
##ral
Inc
hay
saison
Ohio
octobre
1861
samt
Henri
Lietuvos
story
ihn
ac
1864
Malaysia
ging
1857
1879
##én
Virginia
modo
##tica
##yi
Empire
##vé
Entre
That
1800
##ket
plu
##eren
1876
Jahrhundert
Up
fer
Wien
##llo
Victoria
són
without
date
Esta
Florida
equipo
yo
siglo
tal
während
having
Reference
Republic
Seine
Boston
design
election
##ismo
Special
beiden
##ungen
##tz
mer
cerca
language
padre
Queen
punto
dai
FIFA
store
VIII
##iem
Program
short
pop
term
contro
##hu
##bre
Foi
forces
Alfred
Ottawa
##rte
west
political
download
Francis
##ero
Ha
##igen
Ma
created
können
Francesco
##ement
Tony
segunda
division
Franz
Unis
##gang
Lewis
##bus
##bel
oficial
vie
Old
cc
1877
titre
##rin
autre
momento
##ili
ara
ft
juillet
##los
1873
1863
1810
metal
Je
1875
##ila
however
Book
ihr
1633
##ging
Des
##idad
Commons
1865
programa
Natural
##nosti
##erd
##ff
1867
few
east
Digital
uso
Diese
communes
André
##ét
African
Sky
##vis
##ram
México
Japanese
160
pays
##dia
professor
announced
arte
manera
República
worked
##rar
1868
bez
##ede
Stephen
Patrick
sei
Saison
Ray
ima
Villa
half
1850
##iv
Some
Google
##ën
##ong
XIII
online
##ー
Robinson
bil
Home
Universidad
Costa
##iti
##ando
Miguel
dy
Johannes
180
##ト
joined
##jas
##if
Region
project
1500
##rus
See
economic
structure
Romania
##iques
Buenos
décembre
route
eo
ass
hanno
Nature
field
gibt
1866
1872
SS
erhielt
XVII
1859
équipe
theo
vita
vir
wrote
vi
sos
140
Ia
Aires
free
Airport
notamment
##Z
Sun
Act
##nym
##ding
beste
updated
Brian
1869
##ern
##heim
##las
général
##ett
##nika
sub
août
1862
days
lieu
Geschichte
##jon
Georg
##ña
##nas
Wikipedia
##ay
Andrew
##elle
diesem
tarde
Books
Lady
works
##ness
Mario
actual
##ani
God
Amsterdam
Pro
Fernando
Canadian
Studies
race
Bad
returned
1874
Oscar
quien
bol
party
military
status
fi
aj
125
Seit
XIV
professional
Online
Eric
##ella
municipio
Game
month
actor
##tre
Enero
release
##nts
Za
##lus
Institut
founded
##tive
Londres
octubre
##dad
Guide
open
##lli
Fue
Hot
Publishing
##ék
##ký
run
Korea
XII
XV
Regie
Court
##nus
tiempo
2nd
lead
research
Dictionary
EP
dessen
Ludwig
##uta
https
101
win
possible
faire
##way
##nica
##bach
color
Wales
Oslo
##vas
Point
Library
época
miles
pola
homes
business
According
Mission
guerre
Marco
civil
television
Jakarta
hem
inte
Mundial
Elizabeth
lost
Victor
nationale
nó
dag
Jim
human
Pour
Second
##erte
Auf
día
Prince
forme
Mitglied
Entertainment
##tal
##ae
##ń
##ties
Como
church
française
action
##ál
##her
##zer
cours
##una
##iro
Après
##xa
tant
eus
gab
magyar
recorded
sede
together
superficie
##ové
siendo
every
People
én
##tro
rei
##り
Set
dette
Miss
Ta
anti
##illa
elected
Ford
##vá
leurs
##owe
Dan
Century
Sam
##osa
##amente
##bles
empresa
continued
films
Davis
dio
nouveau
Mount
considered
Wolfgang
making
Station
menos
deutschen
Project
office
ok
platt
principale
Alan
track
moment
Claude
##cus
episode
Be
chi
Fort
roman
Carolina
vai
body
##ori
IX
province
política
Nueva
##bia
example
nacional
Nr
Minister
Line
Estado
Most
##isk
Gold
bajo
##rne
policy
él
edition
encore
##jan
opened
ere
syn
Town
algoritmo
ti
##hin
wife
##nos
région
Professor
Valley
autor
##š
##wan
campo
Model
kas
##ich
##fi
teams
stad
##ins
##ré
##gar
event
##lui
##ille
news
##lige
Việt
Auch
Golden
performance
##lse
##san
Cruz
Carlo
prema
Go
nam
Enrique
moins
eu
poco
##ful
DC
Jersey
geographical
Bernard
Zealand
Sur
Corporation
##feld
active
bug
bola
##nost
##haus
##ntes
Stone
sama
Sydney
Susan
special
Austria
ora
Committee
Namen
sehr
##uar
Britannica
##set
Other
Federal
result
##del
##bb
##lio
##isme
put
Games
Development
histoire
Out
février
##kel
Princeton
Familie
Who
qua
Um
105
##ag
Roy
Girl
##ct
##kou
zusammen
periodo
1830
If
Post
sent
##ments
estat
areas
##zie
##ión
##isi
##dal
damit
Foundation
Ernst
Sin
mange
appeared
##nog
Space
##ose
hag
peu
Kong
available
Government
##nar
soit
##ões
##ces
further
lag
front
##up
private
Rome
Pacific
##ait
While
##fe
stand
Stockholm
san
growth
Master
tard
Miller
working
Latin
keine
Für
common
living
XI
developed
formed
august
others
Web
Ireland
##oi
##oni
##ante
título
Hollywood
ligne
##gas
estaba
Public
Kingdom
##sson
##ño
##ean
Story
lu
zurück
##ło
Spanish
Russia
Diego
embargo
census
novel
nebula
##mar
mondiale
Bruce
study
Review
1840
mint
##Y
##ència
dentro
##pus
Order
eng
Premier
##rono
través
entry
Va
##eta
##る
Pennsylvania
Islam
Alex
science
official
##nta
Port
##kat
young
Sea
Premio
Board
Budapest
militar
##še
Anthony
##and
Lepidoptera
##ggio
##wood
addition
himself
tuvo
##ete
##zia
Part
##dores
great
signed
although
Navy
##oa
Network
Movie
##hen
mare
recensement
never
how
América
Regional
interior
tras
devient
Battle
deren
Last
Milano
cultural
102
should
Can
már
Janeiro
otras
Samuel
Family
posto
##sku
topon
##isen
##ette
Biography
Ort
lett
##fer
alta
NBA
##tie
Douglas
neu
Its
##ivo
court
##jí
parti
Sohn
celui
Rose
bekannt
##ao
map
1858
playing
Fox
##dá
Main
disco
ihren
staat
personas
francés
Non
##dt
section
appointed
##nou
Gordon
ente
park
distrito
##ö
collection
##werk
Civil
once
##get
Disney
pendant
##ši
Monte
ant
tam
Illinois
hon
Final
Du
##ary
personal
sea
idea
##sä
municipal
Commission
away
education
selon
##ora
hit
masa
Roberto
filme
##ych
##dra
Georges
Santo
##lag
Deze
##min
Summer
##vano
How
bzw
Country
exemple
película
##pt
territorio
##tä
befindet
current
standard
must
donc
##less
vs
Major
cas
##iya
350
zunächst
Video
##my
cuenta
nich
allem
##zza
punkt
Trade
Anderson
##ans
##ká
francesa
Norte
leader
##če
dois
fils
particular
##ör
Hamburg
Microsoft
##cos
##tions
##vet
politique
force
ohne
mil
police
fast
person
black
ese
Integrated
río
pot
1856
dua
Sport
Education
##owa
mest
Leipzig
polo
1854
Report
classification
Casa
kilometers
Hong
return
##don
diverse
Howard
##ē
kang
##nto
yer
character
Deutschen
Heart
besar
File
Allen
though
##リー
##zh
Like
does
##ela
taken
Internacional
Plant
principalmente
104
cinco
##pan
Southern
ella
aver
Massachusetts
aunque
my
ham
Ltd
across
weitere
Mountain
especie
process
Three
##tto
Nations
Campeonato
bere
start
##ama
1849
opp
##ola
chef
Theatre
español
culture
square
hy
pueden
fase
diversos
##ast
##det
situada
books
tan
##ava
samo
aby
##tek
##lari
##iste
mal
##kar
##ota
good
Joan
tid
inn
##cion
Planet
partido
sang
Anh
début
Village
help
##ân
##い
Colombia
1855
Frankfurt
guitar
dies
hand
##η
Georgia
##ssä
Volume
##mis
##rsi
festival
daughter
Christopher
zone
source
##ön
nuevo
##iin
genre
Marc
Toronto
motor
##iden
white
homme
Catherine
##º
Québec
Soviet
Business
performed
events
Greek
##ī
todas
ada
mother
families
papel
minutes
less
1852
Tokyo
cause
presente
currently
Tim
dira
Mexican
klima
kod
get
gen
Norman
3000
terra
sold
lei
##sto
cao
##iga
##vy
drama
course
Manchester
Northern
deutscher
##wał
415
gave
largest
##tin
stage
située
cuatro
##sin
Magazine
Moore
features
Kevin
upon
begann
Will
##ō
Boy
##ries
Deutsche
Harper
##art
mayo
##tzen
países
##ール
##ping
Stanley
alto
Minor
##vos
Philippe
170
Hotel
nouvelle
##gia
##J
##stand
##aria
Human
italiana
État
Walker
includes
##ott
Pakistan
magazine
ebenfalls
Middle
obras
ani
##ningen
directed
Gabriel
tenía
change
oa
songs
FM
##dar
##ias
Death
##lta
##hus
Catholic
Hoa
Michigan
##vin
Director
Universal
hacia
kommun
road
##imo
sale
##nne
ouest
sé
sense
Finland
ins
alt
cultura
Sports
##its
quali
diferentes
designed
Burton
Gary
DNA
varios
##port
Bell
selbst
##ierte
##asi
neue
##ish
También
quelques
m²
Ze
té
Small
1851
text
##heit
ordre
lange
Jane
Johnny
103
ger
months
originally
issue
gol
##fen
Maurice
##dom
##house
1853
sol
libro
parts
shows
tae
ensemble
##wie
Coppa
##leg
7th
celle
##tore
##ios
Since
##yo
Ab
Est
direction
range
Beach
mid
mod
usa
##din
##ský
league
##ient
##ial
format
apenas
Irish
low
##king
center
Ivan
vu
tri
église
##tel
Hitler
década
##bile
##că
último
neuen
groups
climate
toda
Denne
seen
##čka
anderem
nova
1846
Way
Province
Cross
regular
anterior
##tum
##ñ
##erde
Arten
##liga
Giuseppe
115
roi
Light
##mia
##ší
ba
followed
planet
Venezuela
ku
##tur
##lé
Centro
coach
classe
##gs
Over
##ev
Johan
##lon
##red
##ド
departamento
##jes
##ngen
disse
##menti
training
##ński
Historia
##ngan
Name
septiembre
Mar
vocals
denen
brother
Clark
##tori
taun
Mais
Josef
Fall
Encyclopædia
statt
##ğı
1847
julio
medio
light
seven
numero
García
##mit
##gh
1815
lado
##oval
##usi
episodio
completed
âge
Although
Kelly
double
jeden
##ría
##rak
##cal
Alberto
##hn
##llä
dabei
##て
##zar
##like
Milan
mientras
Meter
Loire
dalle
220
Marcus
Institution
##yon
111
Macmillan
Ontario
uns
Jahrhunderts
importantes
Alpes
terme
Jesus
án
Hermann
##iz
Dance
bad
test
pag
lista
107
108
Hamilton
##oli
##vät
París
size
##gio
superior
cargo
mise
ISO
##well
cinq
ante
negli
junio
##bau
permet
featured
killed
##zeit
Ann
##ions
presenta
Stand
sue
Billy
dir
Mann
Wild
semi
volume
cara
tej
##smo
nahm
usually
countries
spielte
##rik
##ê
throughout
1845
##tico
bod
Back
##wi
Ferdinand
desa
père
Health
##lde
Provincia
edición
360
moderne
##oon
Vietnam
verso
reported
étant
Hugo
More
carrera
1842
##ec
Nelson
##zio
Technology
immer
Puerto
trouve
##uit
finished
Del
page
##yan
##ían
Philadelphia
remained
##car
Congress
Edition
enero
unos
##eo
oro
Field
surface
Down
membres
cum
schools
Barbara
Fire
##ades
240
leading
ní
players
##ture
transport
Hospital
según
Britain
##ków
están
above
##gel
Not
software
Studio
1844
Stuttgart
Sul
##dem
époque
ABC
sites
DJ
Alice
close
cover
##ones
##ap
Dave
##xe
membre
Titel
última
individual
##hed
wenn
college
106
##miento
Moon
##ša
gas
près
##uan
##adas
Sri
Andrea
debido
##sy
either
##tud
contract
período
prin
##jem
##dade
##ule
##sky
week
##shi
##mal
estos
Free
Nick
Directory
112
##ony
begin
président
love
Near
##kte
sistem
SAD
Jazz
1814
Spain
awarded
dernier
gewann
elles
aircraft
1837
ellos
drie
Jorge
Vincent
##tia
Leben
bay
diciembre
esa
Val
Dark
Während
128
able
Lawrence
space
##ech
chez
Dat
##ult
Rudolf
simple
##stein
még
rôle
##nden
termine
##bes
tenia
##ô
##sed
##fall
1839
eight
Theater
Jimmy
Zu
##wski
Et
Adolf
département
##rse
Anton
situé
Med
involved
##uto
Hun
bili
##lah
1834
niveau
frente
About
##int
Single
Sherman
hab
primordial
noviembre
1835
agua
##ches
Code
##mon
Missouri
Nobel
Baden
madre
región
esas
added
interno
bin
federal
##rta
109
##ving
least
##rk
Township
Charlie
pol
Minnesota
##dur
Eastern
##ort
##itat
states
##nh
persona
Khan
##oja
Systema
eventually
gang
wegen
ek
Come
Barat
gobierno
attack
##å
formation
1838
porque
Dead
Menschen
##pes
PC
##sing
Guy
schon
135
Jordan
##bor
##nio
Era
##led
Ana
##ors
##gue
related
kali
##gos
Blues
metres
Jonathan
Later
nivel
##film
especies
##ères
##ming
##tle
Porto
##ová
artist
Ten
Junior
##dre
Pape
##ab
##nice
Mas
Conference
gehörte
##èt
plant
Boys
##kov
1843
Donald
##kas
##nna
Nicolas
##rice
jü
gibi
regional
degree
##ット
##ár
##ance
Ryan
student
##bin
replaced
cases
Management
muerte
##eti
provided
Jacob
##nder
1831
grupos
rue
existe
após
unit
wis
Amt
sondern
genannt
Course
Río
Gruppe
Duke
##iske
centrale
sta
##iche
##sal
medal
Según
eau
otra
winning
vice
erstmals
Tod
Sarah
Asteroid
##ból
sera
casi
##tó
##aire
Channel
Ele
Magyar
étaient
Indiana
self
hos
Desde
fünf
revista
Terra
##cho
Ian
independent
Tropical
goal
##pp
##ized
1812
1836
editor
##rit
##ül
ul
##ow
1644
producer
Levy
vista
nature
presso
Reino
certain
competition
1841
star
normal
estar
117
##dorf
Stadium
planta
internacional
anu
Franco
##kim
Winter
##var
algunos
##ovi
Museo
##ić
Bruno
190
deuxième
##over
Harris
studies
Rosa
grote
western
compte
##vad
Com
too
Keith
##amento
mediana
Ross
rights
otro
atas
Greenwood
##lat
León
camp
René
einige
gehört
clubs
1600
future
seme
450
ver
entonces
ensuite
##az
Gesellschaft
##ania
Chief
Kansas
etapa
fort
Atlantic
##py
previous
Harvard
little
##uma
Railway
mao
estilo
1832
Girls
Apollo
##hr
1833
female
Pays
##ská
Brazil
samme
systems
##elt
##logia
Four
Landkreis
1820
End
ancien
##ario
estadounidense
Germania
Frau
MTV
Third
Jason
Haus
Timur
Teatro
3rd
Andy
uk
hele
##ute
Estadística
Benjamin
gmina
Renaissance
##bio
febrero
##llen
##eno
trat
##ef
##sus
##pis
##wo
wel
Head
##eu
##ires
Opera
Salvador
Ils
Machine
Segunda
environ
##ře
##ischer
anul
Herbert
rather
Baker
##schaft
pay
És
provide
Islands
port
Oliver
scène
publication
whose
rol
nombreux
##ats
Leo
tien
Fred
230
##ym
pdf
1793
##ase
##ped
Sierra
Asian
Scotland
night
kleine
placed
##och
canal
ground
dues
Mac
fourth
toute
largo
digital
Erik
##ća
Form
Graham
minister
direct
manager
ayant
Kreis
don
genom
ag
además
Lincoln
Sein
##aux
jour
Collins
versión
Adams
bass
bilan
forte
code
river
bezeichnet
123
seines
Matt
But
114
Wright
##ics
label
Songs
Hy
##ward
113
ami
##zó
##dio
##weg
tog
success
##ța
health
Republik
owned
Body
nueva
Prize
##umi
##ned
sú
##xo
##gal
carrière
HMS
review
mission
Tag
author
introduced
ever
##oma
1821
ran
arts
americano
##wer
750
##ük
##hl
corpo
Fu
##ento
erst
##logie
densidad
Castle
diesen
stated
tienen
porte
seis
Baby
rund
##lles
Champion
mois
Partido
Justice
reached
orbit
sedan
##ides
dr
116
Libraries
##lte
Arizona
Another
Welt
Colorado
saw
##gy
Just
siguiente
Jewish
División
Now
almost
movement
artista
führte
Regiment
espèce
210
Frederick
Morgan
##ets
legal
##bal
Gustav
Let
##ır
##isten
management
Sainte
petit
behind
southern
Musik
Today
Morris
units
##kog
Revolution
letzten
basis
Liste
network
Historical
Robin
##dus
##igt
Charlotte
Studios
proprio
Selected
neben
UNESCO
##λ
Pablo
Bayern
##dig
Guinea
Object
große
costa
Apple
complex
Jeff
beide
Santos
##inin
##ður
Cuba
Gallery
##sme
##rde
quasi
scored
1200
Express
cantante
cel
Straße
##und
Many
epi
Corps
Wang
##hausen
Daily
mat
dieses
Rusia
##iai
König
CIA
Edwards
Championships
Christmas
Contemporary
Luigi
decided
##sz
##ament
steht
3D
profesor
1825
length
pak
##ities
Kilometer
hui
municipality
Mars
parents
feet
##pin
besteht
période
influence
tale
Remix
ship
souvent
market
Fritz
conditions
Dream
großen
zweiten
1700
campaign
Raymond
brought
successful
commercial
##wane
rest
jeu
northern
Andreas
Paolo
ob
Ces
Survey
Medal
custodian
João
##sar
island
##lang
Vilnius
meses
canción
doit
Arab
need
produce
##fica
Stati
soll
Doctor
reste
principales
mans
county
approximately
Age
público
##ča
tournament
luego
##ord
##aa
1829
Stefan
Durch
##tiva
##ª
##sie
ole
kW
armée
##stan
##any
male
sector
121
AS
##ß
##kon
industry
Bridge
instead
##gne
Papa
stati
Sound
Par
5000
##ip
Cultural
turno
Champions
##dis
THE
1828
our
Captain
001
Ett
Place
1806
mehrere
##kal
elements
results
##sion
required
##kus
Orchestra
elevation
Memorial
Pietro
previously
político
##mat
##wyd
##cida
122
deutsche
américain
ua
##pu
especially
Stewart
##gus
Coast
ihrem
##jar
##cer
rapport
Laura
edificio
##bil
##out
118
##non
##teur
LP
Gemeinden
varias
##mm
Euro
figure
Sultan
##ction
traditional
Gray
feat
Get
below
hatten
Coupe
Their
internationale
report
jazz
outside
writer
##endo
Anfang
Pop
Angel
Steven
basa
Muhammad
means
Bishop
##èrent
mayoría
Wrestling
##esi
organization
listed
itself
originale
Garden
127
corps
##nju
honor
Ez
lived
Grant
Ao
##nel
##ib
sometimes
##ät
##ical
##ande
menor
Société
veces
Miami
primary
gouvernement
Woman
arbeitete
writing
Kr
##eli
interest
musique
Bull
##tivo
##lie
aki
##nal
única
departament
afin
YouTube
Forest
Berg
##ione
##ró
rata
Rafael
Official
Folge
Route
liste
bit
Jerry
seat
champion
Dutch
Dom
changed
attended
fand
##ži
Water
##pel
score
Marshall
figura
Play
SM
##mba
Collection
donne
torneo
Silva
##inde
Catalunya
ultimo
plays
award
oeste
López
Design
Arnold
continue
Haute
significa
minor
Sons
femme
Jon
##yer
EU
##aja
##ude
jadi
##nk
##ρα
anglais
Mix
train
Airlines
buildings
##erung
enn
##dat
Pas
past
Gli
Melbourne
libre
##ologie
str
##jer
1802
##sos
teatro
sollte
finales
cola
tuli
Dame
bland
studierte
épisode
Primera
126
Area
Kennedy
theory
Presidente
##eurs
museum
Einwohner
toujours
##nici
1824
dog
##pia
González
conquest
senior
stal
allerdings
featuring
hizo
Geiger
issues
aller
Warner
Springer
##chten
280
find
Standard
145
soon
mètres
##keit
Sommer
Chart
complete
Poland
chaque
Avenue
##hip
especial
geboren
1789
château
##ein
1813
##erne
paper
Stars
Academia
nou
Köppen
##lly
view
##ual
Wisconsin
1826
significant
runs
##town
jours
Murray
Assembly
Monitoring
money
sólo
sport
Antoine
##ém
##gon
##worth
bronze
##zet
1818
AG
board
bang
##ndi
Families
administration
##tua
Lucas
124
260
hommes
Arena
Olympic
porta
mes
singer
Larva
estas
Gebiet
119
##our
tracks
Etter
beginning
Wolf
opening
tác
army
names
Lyon
higher
problema
laut
Bij
summer
Alle
Peel
Lost
##ã
Franklin
##log
pelos
Alexandre
##rato
arrondissement
días
Margaret
Canal
##rata
Comets
running
Born
155
Geografía
##borg
Norden
ji
Fame
fall
##bili
Carter
child
Police
Kinder
Classification
defeated
Sony
##ック
association
##ular
wide
pesar
auteur
##rios
Municipal
according
##bert
##ain
Mal
problem
WWE
Mitte
generally
Sen
Köln
taking
##eva
##time
Mei
##ema
give
strong
valor
towards
##ology
eru
trabajo
175
Departement
##side
whom
##ène
associated
##esa
##eko
##rek
##pat
Updated
Barry
bar
millions
Vladimir
1016
gold
##yen
AC
1790
highest
SC
industrial
hospital
amor
Phil
NHL
intentions
Julie
Peru
combat
##nga
allowed
charge
lower
eli
scene
Matthew
osa
image
Campbell
goals
##ales
corso
##rdi
Helsinki
##nge
alte
origen
##stä
Kurt
temperatura
##mt
practice
plans
USS
género
sports
Dal
##ists
##cat
outcomes
location
##oda
unique
effet
mediante
Dies
##bat
prix
##eth
##ost
engine
income
##ím
Warren
Here
Rhône
Cover
encara
##sé
auto
matches
ibn
Page
Children
totale
railway
Holland
Brothers
esto
pred
##ndan
contains
##inger
##ller
Aus
1801
gegründet
heavy
weiter
##mé
woman
food
270
millones
esse
##ac
Bevölkerung
##zed
access
Wood
ATP
Following
1816
##cies
better
##gé
puntos
##tir
global
Abu
##mine
1822
##gd
129
PlayStation
##els
Turner
Unternehmen
##mek
wobei
rate
mejor
##rant
finalmente
resto
nous
toutes
operations
##oje
##iera
Medical
##ures
##ador
##yle
hari
131
Madonna
enfants
##istes
Liverpool
especialmente
movie
rural
property
132
##ža
##har
Amor
##cis
poeta
144
##cas
OS
Metal
administrative
Evans
nommé
##tter
hace
articles
mode
sí
Iowa
##gte
Plan
##lands
##iendo
ended
só
##iana
Racing
papa
tok
##ør
Fernández
closed
##bt
key
1819
ministre
thus
##etan
coma
##hal
Denis
Müller
système
cinema
capita
##ué
##iska
##ijos
Our
Astronomical
études
Roberts
1º
##선
##ieren
1827
Marcel
distribution
metro
Ar
##mie
##esta
fille
##itas
##ence
Tennessee
oft
##uda
Statistics
hold
Durant
Java
dazu
droit
##kai
effect
##tina
Bis
personnes
##nier
##vit
œuvre
Pictures
Pauly
distance
##aka
##jet
Television
euro
JR
prend
selv
##bie
134
Wayne
##nut
sex
Houston
Dia
Community
Zur
##kor
Jay
liga
1758
erfolgte
additional
##ric
spent
##mp
##vio
noted
loss
move
##logy
situation
société
152
stations
##uh
sina
##rad
jeune
viele
energy
20th
Louise
##ciu
1792
Gilbert
Early
hijo
insect
tätig
VM
##tí
##essa
Tras
##ん
mostra
Fra
Universidade
fact
conocido
Cape
ch
Seite
##idos
logo
Dean
##yd
Pan
Highway
diverses
133
##back
Lima
retired
##cks
eastern
##cido
##usa
único
premiers
Vater
##TV
##eni
famous
igual
##vić
protein
folk
1817
##aba
Spring
tener
Julius
parties
Catalog
Popular
Stuart
evidence
peuvent
Delhi
Bau
ingen
Hockey
cet
##tig
##ración
Only
Eva
Moscow
today
Allan
##rade
Marina
Zweiten
seria
older
battle
Castro
##bahn
computer
##cki
projet
Broadway
Zagreb
protagonista
##ích
Afghanistan
##rede
##rado
Lorenzo
kommt
##rium
Parker
Chr
sechs
records
sexe
##lsen
##ings
Temple
Schweiz
livre
##wana
batalla
ana
casos
Record
136
##gin
producción
Mrs
##ged
misma
orden
1808
Yang
represented
kon
1809
create
pueblo
demi
##kos
Austin
##nant
##itz
cost
launched
Blood
##cción
ambos
cele
Om
fir
companies
##ロ
terms
sino
CBS
Earl
Polen
Scottish
animal
##zat
cosa
Hills
Cooper
Deep
grado
Alto
Valencia
font
##nger
earlier
Political
trade
Jana
dek
primeros
##ün
Hrsg
voir
320
cast
turn
##iko
vote
staff
lagu
##enia
internet
cha
137
territoire
Years
Engineering
Systems
vain
thought
poste
1795
welche
rey
##ator
Bach
##ame
mana
##adi
Federation
albums
agent
militaire
Zone
##icos
##lerin
HD
1803
##icu
##num
Bot
##vre
##all
Allemagne
##ós
##ont
htm
##atu
Arbeit
##nski
##vala
Nachdem
changes
notable
##čí
Rodríguez
televisión
Silver
Guerre
sources
estate
Süden
##ney
##ues
153
already
Mexiko
recent
##uer
##eus
##tak
Elisabeth
##nse
meist
##ías
journal
tina
Arte
##uti
musste
Christ
decide
Ernest
feature
maison
Sau
Economic
numerous
voi
speed
haber
anh
##IS
##wego
going
##ür
##pet
dès
nunca
appearance
École
partes
conjunto
localidad
relación
985
bas
1823
##cing
##dag
hard
Fischer
favor
schließlich
Martín
Tochter
analysis
Eduardo
tom
takes
aujourd
##olo
Kunst
eigen
##eria
##ime
##cker
##til
hotel
Bereich
Valle
##rada
types
Days
Ministry
##ega
Parliament
characters
Wars
##hat
##ize
specific
Olympics
muchos
entire
Gebäude
##dit
192
##ær
value
Vice
fosse
esposa
##bury
Italien
Class
DDR
##ër
##tique
Bulletin
entered
##stes
concept
Watson
Nintendo
decision
##ering
165
##aje
##oto
Además
##pie
Front
##rre
édition
annual
Iron
##lom
tierra
Türk
Plus
Jest
blieb
places
dire
limited
##ust
condado
Cuando
Five
##är
mano
cambio
##hy
##licher
sociale
Democratic
##Q
##ulu
formar
sit
activities
prime
officer
Nicholas
musica
Linux
##eve
troisième
jeweils
1811
increased
operated
sound
villages
##zing
letter
Segundo
Complete
weiteren
Partei
programs
host
Before
Bir
Parks
##zin
censo
linea
Inglaterra
Julia
##iri
fet
Kota
##mica
Spider
##rm
##end
##lem
Lloyd
Conservation
maps
here
Ken
##aga
travail
wechselte
##vor
separate
##rel
Ari
religious
function
fútbol
bus
Bobby
Or
construcción
Rolling
BC
Domenico
Secretary
verwendet
Yu
##mel
Kent
Reich
Pérez
folgenden
née
##ό
##af
##isa
##riu
Unión
Prozent
Leon
certains
école
Eddie
Ne
concert
marine
chief
bank
##ň
Military
##iel
serve
Hon
##zel
tête
##rz
medical
Singapore
149
Motor
Som
présente
anime
Taiwan
Westen
Raja
erhalten
bli
championnat
artists
138
Square
##ration
Napoli
perché
politik
majority
Mont
Editors
##cle
Ball
Language
Desa
Frankreich
Guatemala
Site
réalisé
Rolle
2019
##lne
Secret
Position
mille
##zik
##ill
##lad
148
1804
shot
content
143
Bergen
caused
lines
##ško
Sankt
##etta
mae
Wall
miembros
übernahm
element
##bs
Films
##tant
##sm
Nouvelle
Dragon
always
selected
führt
studied
##pun
room
got
Ve
erreichte
##ára
hess
kommer
hours
datos
141
##zes
##wen
Oklahoma
##ço
classes
Ancient
Lisa
Ciudad
Discovery
##more
GmbH
1807
Atlanta
remains
temple
tim
##stadt
Gruppen
joueur
latin
programme
île
hecho
139
sexual
##ieron
Thailand
Schmidt
Maryland
us
Kentucky
Larry
cross
husband
mundial
##ois
Mannschaft
forms
modelo
##aal
pie
Imperial
Parti
ak
idi
gilt
voz
Sol
plaza
particularly
##une
1805
##tem
Weltkrieg
Lan
Ai
Italie
Harold
werk
146
##shire
bem
Kenya
Neil
organisation
1794
##bare
frá
##for
scale
comarca
Histoire
##eau
République
Verein
##lation
Mayor
monument
Soul
Oregon
Detroit
Met
Sunday
Dabei
victory
positive
##mise
Hannover
Sebastian
##ines
Torino
İstanbul
##vou
romana
##erna
##jä
university
##form
Box
Original
##ナ
technology
Magic
tv
OL
sola
nombreuses
Mississippi
Urban
mostly
index
##ally
aid
##rate
Alfonso
##zt
partidos
verschiedenen
##rem
Australien
leis
##ridae
##hon
19th
Profile
Bird
toe
application
acht
Mi
##bos
##ball
sister
NHK
relationship
Roland
147
rugby
Wagner
meeting
vivien
relations
lot
posteriormente
kur
act
moun
cities
altitude
Harrison
deve
Knight
Después
Ligue
Geographic
185
elementos
##ierung
villa
note
multiple
Alabama
rus
extra
Polish
historical
uses
Dennis
Österreich
recording
becoming
Ralph
Ukraine
referred
altura
142
Shakespeare
Publications
notes
Terry
##hes
Mitchell
##fied
hin
society
deal
Unit
##nem
Prime
##icus
##ace
llamado
fik
Base
Isabel
Preis
grâce
Abraham
##ug
Mans
Provinz
fuera
##gn
nine
Henrik
capitale
directeur
##iano
Osten
##stra
eingesetzt
##ization
aufgrund
Laurent
Zürich
##ep
##stu
Dick
shown
supported
Hier
##die
gewählt
##jn
##nsa
entstand
Dallas
passed
Queensland
versi
##tische
Hughes
##ére
posición
Camp
Kaiser
##kk
comte
presented
native
Din
gare
##cem
canton
subject
##air
succès
##dea
Hunter
##nischen
##lja
allen
tradition
forced
##qué
dwa
##cca
##ális
Hi
insgesamt
Nancy
##rá
Novi
operation
errichtet
Control
##pas
##oe
problemas
hau
##zado
Rick
##sat
##ís
trí
1798
Schule
Beispiel
##slag
friend
pouvoir
Tu
entrada
Singles
campus
diri
Selon
Threatened
stark
equipos
##tone
##bet
kilometres
##oz
mula
Tommy
UA
Richtung
Serbia
amo
individuals
Dieser
##nic
##ligt
tenir
estudios
##teen
pr
Sint
##als
##sas
longer
stat
lea
Boeing
alan
bergig
NFL
middle
themselves
##ores
Fe
Dort
Perry
##dh
pat
muss
##ppen
Independent
Jules
ancienne
##hof
Guardian
engl
question
radius
##oso
línea
##rou
Millionen
Ho
diversi
ejemplo
##yla
Services
resultado
Note
cualquier
203
dus
fill
##eda
provides
##yt
politico
##tein
##rung
##rg
serving
dato
pages
nota
Dorf
##nz
Ricardo
##see
##rka
côté
##ên
##kommen
Foreign
Carmen
##ßen
Demü
programma
##lot
jer
##ako
##skom
appears
##iers
increase
1799
Re
##10
##por
variety
##isation
##ól
##osi
Leonard
##tien
##of
##ole
Klasse
Rahmen
Prima
ministro
151
erschien
développement
##yang
##gua
##mana
Danny
protection
darauf
##añ
tek
Rey
isla
politician
furent
##unda
création
##tate
cô
1791
GMT
sort
Ron
##ët
done
mi²
mère
Rob
insbesondere
problems
##head
4th
phase
##wn
Statistik
virus
##gie
vest
159
publicado
Unter
156
dance
##pur
##trice
Dei
sik
composed
1400
Entwicklung
Muslim
##lage
larger
168
zones
Egypt
your
Baron
Alain
seul
Galicia
Comics
diversas
Never
##zas
fiction
apie
##dung
assim
Units
##anie
Governor
initially
Schloss
##ume
Naval
loi
Felipe
Limited
Ecuador
##dou
154
Neben
1797
pois
Frauen
Notre
Jahres
##cco
azt
Dublin
##uz
española
Ocean
Korean
bo
Natur
sala
metri
stock
sou
stop
raised
singles
##maa
##chte
##gem
César
##lara
Mercedes
cadre
prison
Uruguay
Classic
llegó
Emma
Singh
Nederlands
Orange
##stad
Über
premio
makes
330
finden
Ye
religion
EM
financial
##lum
##xi
call
rond
##has
algunas
##bank
##off
fem
Ferrari
Krieg
Alaska
##iet
Vienna
##uch
gift
Also
Jerusalem
laquelle
##zada
Flora
##jana
Maine
Six
existence
Graf
pilot
Guillaume
populations
##rica
Masters
races
experience
Politiker
Torre
##unt
Congo
juego
king
contact
Metro
Chemistry
##seen
pl
connu
punt
puesto
vara
deu
Buch
##ub
##ised
devant
Medicine
Berliner
##wald
550
sería
MBC
Computer
terre
##ght
konnten
sat
representa
éxito
Bar
massa
Peace
##wel
##ved
raz
##oy
versions
##dne
##tok
believed
evento
Oriental
mag
ball
201
##yr
dice
##platz
Burg
agit
claimed
parish
##ř
écrit
Republika
cell
Hand
weeks
Anders
Side
Mare
championship
stars
##fu
Philippines
nuclear
union
##rian
Colin
##bit
Production
dû
Introduction
failed
allo
fight
architecture
domaine
##ización
duke
Historic
##band
##kap
FA
quand
foreign
##nska
Martínez
##ann
gouf
Federico
université
1796
Meister
baten
davon
##iger
command
siège
##mir
winner
mainly
Lanka
Rica
troops
electronic
##bility
nave
offered
225
Lane
1775
Hugh
Theo
##chaft
##ún
ceux
##dere
205
Primary
Sánchez
##cz
Joachim
##rkan
bal
Perú
##nidae
##kka
##ös
denn
polos
vivo
locale
moi
helped
Affairs
proceso
Dresden
boli
products
Due
##iki
##ick
saj
vert
Seattle
Willem
167
##rana
##nat
musik
Einsatz
##recht
firma
Université
Unido
##bro
Security
Karel
Kanton
mam
##imi
##yk
novela
Sweden
comenzó
siguientes
tennis
Hudson
overall
border
fans
Werk
numbers
##oko
Lors
vann
##kie
Agosto
Grammy
subsequently
aparece
consists
##ggi
Kate
1300
couple
might
prior
Both
##idas
Jo
##gli
aire
Montreal
ließ
Dam
##zos
drug
assistant
response
Edgar
Giorgio
##onia
leaving
hall
ubicado
acquired
Rico
##gut
MS
sacaro
521
Ich
##ché
157
m³
##dent
turned
projekt
##lingen
estudio
##ctor
press
hockey
##scher
whole
Belgique
##nça
##onal
##tou
sui
Spiel
##eb
Energy
##zug
figures
##00
oil
Seven
Newton
department
sam
##rra
carried
##ars
Vicente
##ppe
cuales
allemand
kamen
##water
Phoenix
Regierung
innerhalb
transfer
eigenen
##lam
Cook
##nun
bridge
##gg
mile
doch
650
mind
nego
Ved
290
erneut
##iones
Electric
raison
Bush
##vil
Angola
viz
##gna
desarrollo
meaning
stories
vocal
##mina
161
Browser
Batman
Jesús
##aj
houses
##ove
Software
dela
Marvel
##cken
teil
##uo
Operation
Emmanuel
Zum
Feb
cabo
Delta
Take
Solo
##nud
fora
Action
##mme
état
Drama
interview
##ssen
1980s
Teresa
escritor
ancient
opposition
Despite
##ños
Bas
nim
Rom
158
Sus
##ándose
Braun
multi
olla
direkt
sing
grada
finally
##stica
Alemania
Caroline
Galerie
##ε
voice
SBS
hacer
163
dernière
Theory
##straße
effects
SK
##ktor
aproximadamente
Via
sortie
##lina
##rda
Sean
marriage
PS
Wiley
sien
earned
Railways
permanent
words
comercial
alemán
Beatles
Type
##gate
Petit
##lica
damals
##nze
##aya
impact
SA
##bas
passa
pole
##rst
##fo
##jin
Ba
occasion
Insel
Helen
attention
Cleveland
Ward
Grace
tropical
Sachsen
pública
Klaus
##ike
Afrique
Statistical
voix
Bremen
Jennifer
Depuis
basso
literatura
renda
déjà
Edinburgh
manga
kurz
nearly
treatment
Sophie
Swedish
languages
passe
Württemberg
broadcast
Conform
attempt
seasons
conocida
##ición
Sarajevo
habe
comes
enough
Baltimore
Personen
Sofia
lives
Tower
plants
##dik
##wr
Beginn
machine
Capital
Pero
Dakota
Bundesliga
weg
torre
Eduard
Sevilla
Minh
##rina
Sweet
genere
##gung
remaining
##meister
Chelsea
Te
##row
Iraq
KBS
reference
milieu
Formula
##rius
##タ
Boris
Napoleon
Potter
Außerdem
Tra
Nguyễn
Ronald
256
##list
Round
##iros
bl
Run
channel
Luke
Sex
zweite
##ory
##iar
incluso
166
Editorial
Future
box
##lit
##ncies
##noj
Théâtre
Nation
##lista
want
starb
##vik
asteroide
product
Mundo
Vancouver
sens
covered
##ship
ehemaligen
ring
gav
Ring
levels
femmes
Sitz
fills
##tri
Mart
jen
Lars
164
Wiener
252
responsible
persone
Vegas
prendre
Chiesa
##ök
##hez
##ded
##uf
moderna
##spiel
nen
##sation
##ū
Japon
cut
176
principios
##zenie
Bretagne
proposed
##cke
##lata
tin
Building
Ban
fuit
fit
Höhe
162
Isaac
Child
dina
Heritage
##rico
AB
Orden
##psis
217
224
át
4000
Wide
Holy
NATO
Key
chanson
dirección
##hold
Cameron
Felix
##enti
IBM
Canton
latter
issued
ata
joue
##tation
Hal
clima
technique
rencontre
Craig
Emil
##pte
##istas
##uga
initial
meilleur
206
matrimonio
regions
##üm
heutigen
últimos
competed
Hawaii
heart
ala
Connecticut
##eid
asi
chart
participe
llamada
debe
tradicional
coa
discovered
##jat
finals
minute
NBC
Espagne
Kane
bare
##lay
líder
Alessandro
sorti
Republican
extended
Staaten
Ouest
table
documents
##ilo
##OS
estructura
##oj
retour
Rugby
##rier
##lade
Spanien
Store
travers
Transport
Website
Justin
ailleurs
195
Indonesien
1780
yet
factor
Again
##enne
Renault
##hir
1784
1970s
Door
security
Cet
know
##uro
junior
Archive
vel
235
##ock
1787
Holstein
starting
futuro
##cka
##ája
dock
hombres
208
whether
##ston
##kes
Agency
Shaw
##ters
Alliance
Forum
sciences
##stas
##igo
##gó
findet
quality
172
kata
Brigade
disease
importance
##rien
Polonia
lor
Places
lid
182
tercer
considerado
evit
Plaza
beaucoup
Bulgaria
##mma
told
##rni
Bee
Chi
##hos
1783
Côte
geht
##rée
Lisboa
grade
##aar
leave
##este
travaux
zog
Alter
cos
quest
177
luz
##że
Butler
Bonn
rule
##mont
##etti
##med
Kings
allow
remporte
##lak
friends
lies
Administration
##iny
god
VF
master
Palace
Éditions
binnen
inter
212
true
Cristo
información
##seite
Was
Between
##kem
mass
Uma
Netherlands
##ttu
Nigeria
households
newspaper
215
Spencer
1788
elections
##ctus
haut
residents
##fication
drums
directly
213
americana
musicale
Metropolitan
visto
Calais
169
##ikan
##fel
despite
Hindu
Hope
##ess
län
##tidae
rivière
candidate
Jakob
basketball
##elo
Emperor
actions
efforts
##ése
##zzi
Hansen
ganó
Grupo
##oir
Sergio
completamente
convirtió
Study
constructed
Nó
Glasgow
Czech
Islamic
asked
says
selle
Wallace
##ago
##ří
produit
Hell
jamais
propio
202
grandi
Domingo
Chen
##vina
##ág
alten
compositor
big
crear
Campo
##tischen
recherche
besonders
Challenge
Tartu
commence
##pio
##lies
Akademie
activity
hal
Youth
##raum
Rainer
coast
##ór
Berkeley
##alo
Organisation
Linda
formato
##ees
barn
frère
profesional
##eit
fifth
##ple
formerly
Works
consiste
##dde
WoRMS
gegenüber
bile
graduated
inferior
onda
204
weil
ea
##rf
cine
##vali
nuk
corte
##²
Trust
seconde
nation
aktiv
Nepal
##care
ud
Productions
Kiss
kind
MM
Liberal
Short
Princess
Senate
Helena
380
##itu
nearby
Herman
Roll
Rights
kilomètres
indica
promoted
median
##enden
##ivi
Forces
petite
seulement
Freedom
Facebook
##tten
Bedeutung
mere
##bora
Fernsehserie
pai
Elena
Artens
188
Hart
mogu
István
habían
données
mujeres
##punkt
percent
Diana
Kenneth
abad
Brooklyn
désa
Bolivia
Olivier
langue
##ierten
managed
Gregory
maximum
##hs
##cima
179
##sco
340
##gens
method
Deux
Utah
search
parfois
tropas
donna
medieval
##rati
primarily
Murphy
bois
num
Greg
models
Player
##kla
##す
211
baseball
##ome
mudo
##iten
titel
##nji
Russland
ton
ll
##aki
##ioni
techniques
mapa
178
171
##フ
Aragón
calcio
females
Tamil
##bla
images
Test
Theodor
likely
##gent
##js
eux
183
##ért
##vě
##dale
Marne
ships
servir
recibió
Turkey
193
##ated
##う
quel
animals
##ible
##com
exterior
Leopold
181
siempre
##ulo
breve
arter
guitarra
##rca
NY
##èl
##sza
1785
ID
zahlreiche
TBS
crime
##iere
SP
wing
##bon
Leonardo
##itet
argent
##owi
Tanzania
Squadron
Norway
arrived
wanted
##ants
alternative
Está
Commonwealth
pare
origin
##ensis
sowohl
##rno
Rebecca
darunter
Bologna
1776
##eel
##ldi
duc
##ther
##ló
highly
savo
commerce
##schule
appear
Mutter
Alla
categoría
##20
suya
Jonas
journalist
##vent
posterior
##oo
équipes
184
Venezia
Reihe
verschiedene
Bond
executive
catalog
Happy
trains
Avec
ello
Local
Ice
##rol
Source
principio
común
grands
Fantasy
##nation
Birmingham
acteur
Lucky
222
passage
##mark
cancer
##gis
##nsi
##bol
207
Torres
Allah
Harvey
##zon
performances
occidental
##ismus
platform
sob
edad
János
horas
##ème
ganz
Publishers
174
Tot
Race
##arna
Conseil
Werke
posible
romano
Auguste
temas
ambiente
particulier
##par
Gene
Titre
iba
tat
bataille
Alta
Oh
Petersburg
África
Counties
##nent
FK
saying
Mind
Cultura
Turkish
##pos
173
Orleans
1960s
##マ
##jus
Ain
partner
founder
1990s
Wind
##lare
Île
##tera
beispielsweise
##ologia
projects
##iente
##cina
Weg
##isé
197
Javier
##ér
crisis
prominent
théâtre
bestand
minutos
quelle
Supreme
bon
Klein
nouvelles
##fte
##lls
##chu
##tiques
##dora
Louisiana
##ffer
permite
Aircraft
##alt
gemeinsam
physical
Senior
appearances
prej
Indien
abord
Upper
Marx
oriental
Clarke
folgte
Provence
veröffentlicht
historique
##ött
pont
Magnus
ina
Nombre
Luna
##yar
##ossa
##eron
Heaven
danach
Uni
Angelo
Ted
Member
medios
knowledge
##gere
inside
jugador
##erer
Swiss
realizar
AD
Musée
##liği
##nau
duo
Price
##cional
ju
Bowl
miembro
extension
conta
Xbox
communauté
##ining
Jose
##asa
SR
##ovat
Baptiste
edu
##inu
compañía
wi
Rangers
##fort
card
objet
SE
##idea
Carol
Common
approach
literature
Wu
peso
Once
Creative
potential
Sara
##aron
Clara
##rze
##tung
gminy
meisten
capacity
lassen
verde
gun
Soc
Pete
proyecto
bolo
Armee
Albums
Friends
Manhattan
Vila
Falls
Reserve
kaum
##pta
rules
##uni
##buch
revealed
formal
##ery
aide
Nell
sole
##weise
480
dun
Gerhard
Amy
##juk
eri
Julian
commonly
##but
promotion
plantas
##eto
Season
cells
##else
##ode
##zne
library
positions
formas
Grund
transferred
materials
tree
focus
file
account
##oka
##eet
acuerdo
aurait
espèces
bases
dix
##ík
Each
industria
américaine
187
##rov
longitud
##logía
##zan
Notes
Paz
##gle
OF
Landes
poor
punk
fare
vielen
blue
5th
##iidae
Malta
Auto
vant
meet
ataque
utilisé
Toledo
Spieler
Studium
##éu
##uden
surtout
probably
Florence
estación
##ény
##skap
Rain
Philipp
officially
teilweise
186
französischen
scientific
##lma
##kunde
Change
forward
##ált
smaller
##nium
##stone
##sha
parmi
Dog
Pod
green
participar
soldiers
équipements
SPD
Irlanda
Through
build
Nash
ander
Finale
Lieutenant
autour
urban
##eten
Chapter
Autor
Sci
221
dedicated
Stein
199
Halle
density
Musical
kommen
##ln
kein
Zeitschrift
##nova
designated
Ses
##lda
##ült
pass
silver
1100
Proceedings
Madison
renamed
209
Heinz
Generation
construit
firm
Pink
Rogers
##enta
except
Alejandro
principe
Bahn
blanc
##ray
##ever
Holmes
Alexandra
divided
##km
awards
##geschichte
primero
vis
198
Minas
lac
Liu
dead
pressure
seda
1786
brand
Düsseldorf
situado
Christoph
Sullivan
##có
1770
##ást
##kia
Persian
##con
##κ
Right
Off
pou
algo
Episode
##rah
sons
formación
council
Mobile
temperature
Biblioteca
expression
##tit
solar
objetivo
Atlético
collaboration
Where
1750
localizada
Académie
189
241
Davies
##ø
escrita
##lagt
terminal
Call
Ramón
moving
ibi
Gmina
parc
##ép
grave
áreas
##zka
evitar
flight
officers
lack
quais
incluyendo
Christine
##şı
quickly
travel
viel
sets
ability
ig
Miles
episodes
2020
links
##mai
Executive
##zni
191
grew
Julio
##isti
titled
réseau
Mother
trial
job
zeigt
Cinema
##tif
desse
lane
##album
gut
##ave
Abdul
##ense
actualmente
unde
Full
##eken
Double
secret
##anza
quartier
zonas
cá
loc
Evolution
créé
196
Morning
216
moral
Serra
pasó
Beck
audio
planeta
Nga
Heidelberg
follows
##zación
Text
historic
##führung
join
Punta
XXI
considera
auteurs
##cum
##bou
Jefferson
##rés
actriz
Eurovision
Peak
Katalog
conducted
##onen
Angleterre
mixed
HC
recently
mouvement
##ional
Córdoba
sieben
monte
214
##rim
Rachel
say
letzte
academic
Xavier
##verk
diffusion
mercado
226
ordered
MHz
becomes
Wie
épouse
needed
Lang
Cole
##tada
ideas
drive
Château
540
Pittsburgh
##sberg
Irak
offers
keep
unei
falta
Beijing
mucho
workers
Schleswig
PR
street
##oti
Parque
será
Bros
Dos
encuentran
Owen
nove
Quebec
sales
Lu
Virgin
floor
##ttes
NCAA
share
##eer
Golf
Pope
ihnen
##tino
Ankara
thu
Yale
personnel
introduction
##mak
Storm
275
##rir
removed
Augustus
serial
rare
Luxembourg
stone
Após
##nir
defined
Fauna
Neue
mang
##ével
##name
Koch
##eng
Adrian
Organization
daher
settlement
##cé
esti
Gino
##park
etwas
232
Command
Hard
Biology
##kirche
Rural
##late
royal
Arkansas
canciones
##gues
coming
Linie
Première
Car
situación
##bé
##vie
Portal
propia
möglich
parking
Ruth
Bass
Pont
lb
310
##lege
différents
BMW
stellte
Money
##kle
Pyrénées
##tio
##jal
##gruppe
roles
archaeological
##entes
255
Tierra
immediately
##rch
crew
mujer
gauche
Stanford
carta
##anse
##nit
##fan
##dera
Grey
queste
Mercury
##cada
##enie
##mesi
##bourg
Wasser
Cap
intended
amount
##uce
##ington
##uka
True
Bangladesh
defensa
zudem
pris
alone
destroyed
sg
##ER
Phillips
##iant
Église
thi
Mountains
Walt
pi
prince
zehn
##ages
housing
llegar
Jeanne
Mason
fonction
IP
##ekt
kleinen
spider
prie
##rów
##sit
Performance
split
Clinton
##ied
##rang
armas
370
participated
##vers
hombre
Because
##can
leaders
##jena
Sua
organización
Constitution
##ába
compagnie
Brandenburg
Esto
##ncy
##jima
Religion
Nos
upper
##aine
Zaragoza
Jeux
##sce
risk
Shanghai
Food
##sma
Weekly
##pers
break
Link
estaban
Sprache
##fy
##ví
##të
##uli
Más
Ecology
operating
##iza
youth
Bachelor
Bruxelles
victoire
honneur
##kker
País
##cular
##wang
Suisse
iglesia
emperador
vorm
trata
420
nada
##assa
##tea
##kur
rad
Étienne
##nega
actress
Know
gehören
Mozart
dias
reach
besuchte
campagne
fecha
Internationale
pari
##cta
Got
planned
Enrico
widely
hora
facilities
##enberg
##sman
##tät
Twitter
##light
acid
Cependant
Analysis
vari
##eld
Industrial
partida
Blake
zuvor
##lk
##tors
##iek
##etto
##lir
creación
458
##chter
Piano
Zwischen
AM
britannique
Alonso
##bis
instrument
Iglesia
Tres
seule
Avery
saint
Aaron
##dzie
Case
Sub
gelang
tipos
Inter
Hungarian
Commissioner
##aran
Living
##zak
actually
##koj
##ums
Athletic
##ents
##rini
238
Handbook
Paula
Departamento
territory
Dylan
##ives
Montana
habitat
districts
Erich
owner
223
Edmund
Palazzo
hinaus
características
giving
Mali
##ening
setzte
Trophy
##anti
offer
footballer
Tor
Claire
##íes
Zeitung
Bang
musée
gara
Wikipédia
purchased
tales
militares
Alt
Joel
Among
Tal
Armstrong
serves
obtient
fundada
##inn
##aro
Soest
asl
##tvo
##êm
Shah
194
lokal
Spirit
Sammlung
Résumé
Bryan
##tika
1774
leaves
equipment
##koa
critical
obtenir
therefore
Pradesh
1782
Physics
handelt
mari
##lama
##dien
demande
cura
Strecke
##encia
Plata
Zhang
cela
torna
Montréal
##cchi
CEO
Weber
##day
visual
Karen
purpose
##íos
##eden
inne
Präsident
Projekt
##enen
Simpson
befinden
Stevens
##ität
comando
Dollar
Away
218
Hungary
cars
##tag
recursos
##icht
machte
artistas
Mayo
Philosophy
civile
males
fellow
conflict
typically
##bad
barat
Say
##lna
eigene
##ussa
poet
rive
zwar
##esse
ice
organized
Nevada
cuerpo
Escuela
MC
Bahnhof
440
votes
branch
Monaco
mobile
composition
Face
felt
karo
varie
institutions
##kse
schrieb
things
Laut
Auflage
Zuid
Scientific
##ière
##zte
servicio
girl
pista
##nsis
Derby
##kant
CA
Todd
sehen
birth
Bruder
condition
Pat
Ahmad
Armenia
Next
deutsch
adopted
Symphony
hour
##owo
Bristol
acqua
häufig
##12
##win
Kongo
sistemas
publié
Sicilia
Granada
##gina
Ville
##nad
Rev
##mentos
##book
deriva
Why
Colonel
Norwegian
##gebiet
##igung
premières
Artes
rival
oblast
1772
defeat
assigned
humanos
regime
Comité
lequel
1778
armes
memoria
##él
##hte
##wick
stammt
hindi
muda
sociales
plupart
##ello
##ote
##ám
2500
expansion
##rten
Voice
cependant
##vien
Romano
Fine
Map
Saturday
##rul
semana
Have
Karriere
##nka
Reed
reviews
Bernhard
##bres
Prof
clear
USD
Kind
##rri
##sun
6th
##nelle
einigen
248
Utrecht
força
Bible
circuit
conseil
provincial
dau
hen
##inga
Fisher
mentioned
gene
blood
effort
structures
continua
##yev
Charts
escrito
lake
accepted
Col
Geological
Number
Hessen
vous
Ferenc
850
Marcos
Greatest
##ș
read
Frederik
tar
##TA
gives
##rist
1781
pan
foot
##ations
234
##gono
##tad
Viktor
Andrés
Ángel
Rei
##amt
mor
##mist
communication
teacher
tandis
IF
Panama
##iser
plantes
engineering
##upa
##esen
1777
Marseille
declared
##ística
##bot
tome
##coli
##ckt
conference
captured
electric
##tom
futbol
231
Stelle
accident
frac
archive
Augusta
Revista
Thomson
##bek
Spiele
formes
Staten
##ES
há
russe
dirigida
Cat
genera
##uses
##wagen
Ellen
frem
DE
Americans
grund
Gómez
Mesa
manière
volumes
##ws
profit
guide
Firma
kar
acting
##ious
basic
##uno
Cold
##aste
sept
texte
dark
mini
312
Rita
amerikanischen
305
sett
alongside
Paraguay
tip
leadership
Bern
253
##oc
Yemen
##cze
##pora
##fahrt
Gibson
sát
##usta
##cza
Rotterdam
Late
mesure
Documents
Ya
##iku
Greece
crítica
look
Oro
document
Hits
Bordeaux
Stage
Diamond
##nien
Betrieb
respectively
aumento
##tka
Cao
Andre
Insee
fell
##zor
genutzt
##née
##oga
gleichen
amour
isola
Politics
super
Istanbul
Total
gained
Nielsen
Drive
Week
difficult
mountain
hoy
GP
Vertrag
communities
Superior
relation
##tne
##rma
##itt
ranked
##sey
entstanden
ofta
##pit
cannot
Toulouse
continues
estimated
Legend
término
Tage
erreicht
##lea
##uru
Emily
##ática
##yu
##mbo
alrededor
Honda
budget
CC
memory
##lash
fronte
combined
##lic
paso
##vant
relative
investigación
Convention
territori
##ition
##lene
Wells
##ünde
gh
dados
principalement
Ini
##zett
239
Raven
largely
Springs
possède
Foster
##drag
Ulrich
264
desta
227
responsable
Medien
pintura
Schweizer
Tel
artistes
hip
Kloster
Portland
Tales
365
##tha
##kke
serien
contemporary
375
Linnaeus
##eza
Devil
Maret
Hunt
hosted
Danach
##ば
appelé
Birds
sentido
##igkeit
importants
remain
##dge
agreement
##erie
##xes
Powell
goes
stellt
Ka
##nter
Carabidae
baie
Richmond
SV
Brasilien
properties
val
ort
##ít
##zem
Officer
tax
Eyes
ro
completa
Ad
Harald
lago
Klub
avaient
stehen
Alberta
recognized
suivante
signal
##lung
##cano
Venus
Mitglieder
##logi
##sini
realizado
Ersten
aga
weight
outra
ait
Teheran
roll
265
contiene
muchas
##room
mora
Ahmed
fece
yards
Industry
somit
##uhan
##ellen
Portuguese
Kultur
proces
Flight
Nebraska
growing
comandante
alles
Castilla
govern
agreed
cea
##öt
##oria
liv
1773
Arsenal
##ots
##nae
presence
generation
##rdo
Labour
spread
262
##hou
Syria
Wing
Crown
nació
##fat
Nat
compared
Tyler
lokale
Tai
Fiction
##gra
##elli
Yves
Annie
Work
Regions
##ären
##ixen
228
clase
##wing
##omo
administrativa
Curtis
Chemical
##amen
dado
nachdem
Nähe
politics
Jessica
520
##mond
Tout
joint
##oh
##board
lata
##nata
Basketball
jam
rang
Fair
mg
##éré
Literatur
verder
chose
enorme
greater
##eh
reduced
Navarra
##iy
capo
243
##uen
soldats
conquista
occidentale
comedy
occurred
##kers
famoso
##fs
resources
##lés
##gger
##rom
Teams
##dina
lässt
gebaut
gründete
##cato
##fera
nuevos
##elor
##lav
Normandie
Hilfe
frontera
##ders
causes
Commander
participation
negative
##î
justice
différentes
Canadá
bastante
Otte
##mata
Around
verloren
Liebe
Conrad
Tree
233
##antes
Nei
Cohen
tercera
lah
RAF
Nazi
deutlich
estuvo
weniger
Miranda
Schneider
325
variable
lai
Stadion
##rile
billion
##ď
cycle
voie
245
Denmark
##lmente
valle
##šte
lever
amerikanischer
Kid
Literature
escuela
219
élections
Nie
claims
gain
1760
##nii
función
Madame
noir
Tiger
realizó
background
Ridge
##ugh
nominated
##cent
##ús
Soccer
aufgenommen
##lane
naval
cal
Norton
driver
resta
##nú
ubicada
paid
313
Leslie
présence
##lser
##hem
vera
Jung
motivo
distancia
##gado
Stories
##minister
Hof
1763
Pearl
##ief
##ři
patients
##ói
##star
Helmut
expected
draw
##key
programas
winter
Orlando
établissements
##zek
##yat
Android
##uja
Buffalo
œuvres
mph
teu
Madagascar
Luca
Switzerland
letters
jeunes
##igh
Ziel
taught
##ahan
##alla
hinter
certaines
##ond
servicios
Kuala
formada
marque
Hampshire
Ca
acres
ven
##isce
twenty
##onie
spring
##cate
humans
Stalin
Infantry
Native
##selt
Sr
applications
environment
audience
gisa
secondary
Bennett
##zone
Kosovo
Augusto
Server
medida
##tul
Josh
pasa
295
suffered
bring
##gre
instruments
simply
colonial
providing
##yor
copies
donné
##indo
expanded
ursprünglich
Loma
Defense
306
damage
##umu
##tati
identified
##tog
251
##eres
Emmy
##eris
##ew
Filmen
Zentrum
Verde
something
##ops
empresas
lá
movimiento
##kten
Beyond
Match
Nassau
fly
Grecia
Geometridae
entreprise
Palmer
Mine
##ij
Ghost
##ates
Eo
##ød
##ír
002
Zero
##führer
Romeo
Jun
##ël
link
graf
##naire
##lauf
Glenn
##cen
Thai
Gloria
Darwin
locales
##rts
229
ap
301
##rman
fish
terres
prof
ejército
##phone
aún
restaurant
##ván
statue
##vara
##tés
Illustrated
##halten
##pper
beta
##dro
254
Edwin
Concert
twice
430
304
##git
Basel
Anti
##nä
Imperio
Ela
parallel
finish
erwähnt
Bezeichnung
receive
##cation
##út
Germain
Raum
Article
diagrama
actrice
##orn
victoria
televisiva
vive
##ái
##atus
suit
entrar
236
Vera
professeur
Hopkins
Giacomo
Hai
##rida
Dio
Seoul
##ś
##bang
Josep
lorsque
violence
Bereits
##bung
##lere
Father
Honor
dando
kraj
usado
Gérard
Así
##tado
hop
architect
dafür
Ibn
Stefano
##tr
Bois
parroquia
Intel
Kai
##iens
##ake
int
Tibet
Solar
désormais
Seu
Claudio
morir
Track
covers
410
Companion
##tics
télévisée
##spieler
##nahme
precedente
##zzo
##iam
##stel
propre
Banks
IOC
##inas
##aw
hija
facto
macht
coi
246
##dium
##dita
Training
##aries
Ella
usage
begins
Gil
allows
Then
voit
Origins
Anno
composer
Bd
##lidae
Lucy
##zki
traffic
attacks
##ók
Uno
Rosario
Jews
titles
##verein
cabeza
engineer
outre
minimum
##rden
hu
##dura
pintor
Fútbol
##lov
Room
construir
Belgium
AFC
##ebb
situated
##dí
mehreren
villes
##inis
Want
##uca
Pascal
249
creation
kept
##iah
Eugène
Hero
Nagy
cinéma
Authority
terrain
moyenne
intitulé
Socorro
commission
Arabic
Malcolm
newly
matchs
UN
ceinture
Dawn
épisodes
Garcia
Palermo
Luc
deep
Gymnasium
außerdem
connue
Saudi
Produktion
Belle
Tang
Artist
densidade
Chem
reports
veröffentlichte
Alba
##ég
Beograd
##angan
Nathan
Globe
combate
Félix
resulted
##ece
existing
Stan
portion
nuit
##erten
organizations
theme
Michele
##lada
towns
lugares
##att
Frédéric
Yeni
organ
camera
##stic
división
Upon
Tá
##tida
##jai
questions
orientale
##ático
Abril
##jt
wall
##ivos
Díaz
##lagen
Hardy
anteriores
euros
##uin
##liste
##eck
Nina
Julien
éditions
272
Comté
petits
unes
proto
gelegen
##vole
Make
Orient
Advanced
resulting
Far
hie
Patricia
##alan
Bischof
ratio
reçoit
Guitar
Fund
piece
buried
##idades
authority
##graphie
##lek
conte
liegen
suivant
307
sign
absolvierte
Alfredo
description
develop
Vega
##dek
##tai
élu
##sida
orchestra
logements
légales
Beautiful
Teile
1768
Eugene
droite
pasar
deste
Making
Nuevo
applied
considerada
coup
hijos
003
##toria
ty
Chuck
invasion
Private
Española
effective
##lä
visible
Luther
titular
Richter
seats
##the
learning
soles
Martha
boy
Pa
fia
##tge
activité
setiembre
##rja
arba
Nice
campeonato
painting
reality
lieutenant
brigade
doctor
erster
pues
##ilen
##mmer
iTunes
Lista
##iker
IT
guest
##jk
gener
granted
utilizado
Oblast
Beste
info
marked
##osta
##kta
connected
257
lama
rouge
##tern
##jia
##ffe
Ortsteil
##mb
##halt
##nam
mata
vue
tells
unidades
surrounding
639
hermano
Erfolg
necessary
Honduras
Edge
MW
##uel
gewesen
##zation
usar
Range
inspired
##mic
##gge
fuerza
Michelle
arc
Leiden
advanced
Lorraine
##hur
Asociación
receptor
Baseball
groupes
Jeremy
##nds
ernannt
##dica
##owski
dá
271
##gat
courses
presencia
radar
Comme
safety
anual
##pon
Berger
trad
##aat
##IN
##itus
Academic
##qi
##ficación
##arten
##SA
Nicole
##mde
Lion
Dana
##aten
Léon
ranking
tried
seguir
Que
##down
Sala
sq
Magdalena
303
bala
##gni
##ês
Start
237
Chine
completely
##ète
mandat
##minen
##illo
##nische
##tory
##verse
##chy
votos
Continental
Terre
personaje
lau
MP
ray
Jesse
Montgomery
fully
foto
Vista
Omar
disc
##anu
Adelaide
vehicles
yard
Maritime
Familien
block
333
rio
multimedia
containing
##eux
südlich
FBI
kanton
##čko
sides
plata
##rane
Marion
MA
wins
rejoint
UCI
##gno
##øy
teaching
Liberty
Aunque
##iter
460
242
antiguo
##bing
unknown
##grafía
antigua
##nten
##ender
Tam
##hme
Artikel
1779
Truppen
fondo
decir
Emilio
huit
obtained
scoring
confirmed
##gren
Munich
##ünden
axe
##nci
nouveaux
Petra
acción
Verbindung
core
generalmente
EC
Angela
généralement
Spielen
Royaume
Tennis
##mans
Viena
wenig
1740
populaire
288
vehicle
terreno
##lius
##lava
talent
methods
Albrecht
ore
##tamente
blei
edited
##egen
Ihre
Communications
finalement
geworden
Dios
maig
injury
##ware
claim
##cono
Bien
Steel
rend
EMI
referencia
##ares
younger
showed
##vez
1753
Welsh
##dle
Günther
##nca
##meter
bord
Ainsi
285
unas
##jah
##stre
##érer
noto
euren
welches
Jamie
baza
Policy
lès
Hay
##ï
##preis
Search
starring
##ight
troupes
disponible
##cm
CDU
##enn
##öld
Becker
fighting
visit
##lini
Branch
mine
translation
Emilia
##mission
##chia
Evil
Universe
##av
Dieu
Still
economy
##eon
versie
Bratislava
Yorkshire
Guillermo
##quet
Sieg
Us
##ést
importancia
SD
244
Testament
##awa
##itos
principals
aquel
limite
Chan
classement
labor
étude
Cannes
Konrad
Bo
##tand
Brooks
oldest
chairman
Tale
Flying
committee
daily
Battalion
CV
pair
influencia
lle
##yl
Stade
Engels
household
contrato
autores
##olt
18th
suggested
Arbeiten
Ranking
Grove
Moselle
##unta
bildet
kat
##vati
historie
siehe
##bild
Ministerio
commander
distintos
Lage
instrumental
exchange
Alpha
##iona
Censo
dates
schloss
Forbes
315
bor
officials
forest
pinyin
publicada
champions
Ex
Hubert
##rich
trono
##odu
Wahl
##cted
Roosevelt
Bernardo
##rlo
##isto
facility
Too
subsp
empezó
Interview
##anja
Tallinn
unu
##agi
hom
participó
##cre
tower
##mate
kai
probablement
Horse
##enda
Escola
arrive
losing
Lower
##rita
calle
##iat
variant
##rzy
trop
Herzog
girls
documentary
##col
##れ
Choice
Gobierno
Kommunen
Til
##tsi
retrouve
Arabia
Shadow
##low
Chase
##ened
beat
resultados
benannt
Pologne
think
##put
Deutsch
texto
chance
##ulation
Stanisław
critique
restos
Ellis
Betty
matter
étape
rank
Condado
Vienne
historian
stadium
tie
programming
##iae
##hia
dis
hits
hands
##icas
WTA
##rán
lit
Auvergne
comté
vede
Rich
reason
arten
dollars
campaña
einmal
DL
Flores
Giro
Ruiz
Duncan
##glia
Axel
Nachfolger
fundamental
visita
argentino
##iran
##ninger
elecciones
##dum
F1
Amazon
GT
amigo
concernant
mental
247
chosen
routes
##sio
diente
incident
participación
Railroad
Eagle
##iment
theatre
##jak
##burgo
Nama
##gor
Trek
##rija
lyrics
##sts
Deportivo
##unu
##cc
##cía
##orum
##rla
##bbe
Forever
Jupiter
##azi
Newcastle
entwickelte
1660
Hernandez
Mk
Beim
406
verheiratet
follow
##ête
##ph
1648
Lambert
Suba
##ído
VL
Vor
peace
DS
fuerzas
queda
##graphy
##lán
composé
##dil
ove
usando
##nais
formado
entra
##sso
succeeded
##kis
Angels
Palma
Even
Jürgen
##iding
ama
arms
Kids
Snow
captain
blues
laws
Jos
##rge
##sée
Professional
##eja
##isse
nombrado
xe
##graph
Guido
display
serait
Horn
centra
##tim
Porter
Croix
Gattung
Dieses
Fast
##cens
##ío
##ovo
##itate
##von
Noctuidae
diferencia
##lü
Ausbildung
bande
##rent
##stellen
ihres
bonus
Évolution
##cci
##itä
medicine
Rang
peste
##ístico
##ith
amateur
mix
Animal
Gulf
##ogi
headquarters
Ja
Regel
dele
nördlich
Pokémon
Dominique
##asta
##día
Einwohnern
Basis
##colo
entitled
actividades
générale
entrée
functions
holds
latino
décide
livres
Cristina
Fiat
##yes
Min
##stik
achieved
Länge
Stil
derrota
##rti
authorities
##hé
##rades
Circle
completo
Titan
anschließend
Jin
Besitz
390
##mbang
quarter
enda
aa
Nu
##oan
heures
Ottoman
inhabitants
##vei
erzielte
Obama
allowing
Haut
1950s
Broadcasting
politiques
espace
kamp
Lille
Vereinigten
Ada
zero
Weltmeisterschaft
##ssi
Regina
depi
fundador
Berlín
adaptation
Begriff
##inden
passes
siete
##sne
größten
disputa
Sudan
Pfalz
Market
Vid
Filippo
273
##eran
fonte
cm³
Circuit
##fier
Göteborg
Amérique
##sley
##ási
gruppen
Staat
relatively
asp
sum
Without
Israeli
draft
LINEAR
Russie
fields
Nationale
Damit
##ceu
Crystal
airport
escala
##einander
reino
asal
Hochschule
##dern
Simone
266
títulos
fuerte
ann
##aca
joven
##vna
Sør
##ína
Section
concerts
solution
##glio
spot
créée
spielt
stil
##ände
résultats
Movement
utiliza
##bius
montre
##nces
Flash
anv
Zudem
##quer
Gründung
Christina
##rino
##tól
Chang
323
Chrysomelidae
coll
identity
humana
##cata
Wellington
##aco
Aviation
##quia
target
##öl
Distrito
##cera
beyond
Eye
maire
##ex
einde
268
##°C
sering
absence
##sak
dritten
personnage
Several
steel
Braunschweig
263
##owie
imperial
302
needs
müssen
Hung
sinn
Walk
façon
auprès
Pavel
##euse
nº
fishes
occupied
Chairman
##rot
Castillo
##fahren
Mill
Jake
folgende
allí
##ladi
##eter
Novo
vídeo
derecho
Leeds
Adventures
##bah
kehrte
Jensen
inicial
perteneciente
Beat
tank
6000
trees
Ghana
write
##pak
Scénario
Revue
Bogotá
Bonaparte
Berry
rapidement
Draft
##ficado
patag
aC
selben
realizada
rise
##nig
sonora
contributions
dirigido
astéroïdes
eventos
##cket
1771
##zung
fauna
##rine
zom
Maya
Return
derechos
Guard
elemento
espacio
286
Dreams
##ót
##ined
sogar
##ites
pt
morning
arma
plats
brothers
##rza
políticos
domain
Tribunal
gente
Manager
st
bands
quant
##arse
voyage
Stiftung
governor
Svenska
Igor
Low
282
Economics
Azerbaijan
Hälfte
issu
museo
umfasst
ehemalige
teoría
Consejo
1766
Laguna
##tine
Ungarn
découvert
fond
missions
supérieur
hohen
perform
##aci
1769
Crazy
frequently
##50
##sca
Cemetery
276
Hann
Intelligence
len
comptait
conde
Travel
bought
##ufen
##uran
moth
##xt
277
Kategorie
Brand
Olga
##spor
Philippine
##ID
Dieter
Antoni
clan
Clube
##gir
Block
sixth
supply
##sor
Bronze
##pol
274
##pare
occupation
Albania
1765
##ringen
Sogn
Ki
respect
Deutscher
Seventh
Papua
liberal
saga
##olla
Mass
células
dur
totalmente
Göttingen
##pada
Things
encontrar
selección
heiratete
##zko
ellas
Phi
##nato
év
gebracht
Toyota
técnica
##enes
Westfalen
Cada
Paradise
Pe
holding
portant
Woods
##enburg
settled
##museum
Staff
Mayer
##dni
befand
Salzburg
##istic
Aleksandr
Ti
##odi
Folgen
brief
##vale
bé
##aciones
ends
##äre
Münster
controlled
Herschel
russo
französische
shared
vat
1767
Actualmente
oficialmente
histórico
pieces
Leitung
##tza
celles
mente
Rossi
##eret
ending
LA
##ules
llevó
261
Tournament
##ivity
AU
Hendrik
Tell
##dice
##kol
assez
tua
amigos
tamaño
##roy
##lim
##vista
Richards
##agem
user
aired
1650
electoral
##dla
##onne
creating
Herrschaft
284
annonce
gira
##tui
Neal
Réalisation
constant
##ziale
Parma
##moto
forza
cor
extensive
##mpe
##ody
Sidney
dt
départ
posta
garde
filma
simples
Kun
klein
Richardson
noche
##graf
maestro
##aires
Stop
##bte
##mán
Posteriormente
Pendant
Inside
científica
281
Geography
tels
mark
##π
Ihr
258
launch
470
chemin
Enterprise
convertir
Technical
##dé
##bir
Monica
Salt
##ív
Andrzej
Mills
Montenegro
acts
Ida
Ing
semble
##fn
##lal
287
##sburg
dessus
##bridge
personne
ayuda
portal
Leiter
##oku
##vere
Freiburg
testa
Status
ahora
Trois
capable
statistique
Bradley
agriculture
##iau
comprend
hoc
##osti
prevent
##torio
Jeffrey
mah
ebenso
##lant
pal
object
internationalen
##vana
Fighter
Ph
##bildung
##fia
Milton
##hard
medalla
Denver
##elen
##fin
besitzt
##jó
##bina
derived
Archives
Prior
##poli
Orléans
Brad
régiment
transporte
entwickelt
##hm
minder
obtuvo
1762
##tki
##ûn
Comedy
enemy
palabra
##odd
proche
278
##nc
setting
Weitere
##ñas
Nokia
##aus
Pato
birds
##ienne
gay
338
dólares
##war
murder
##tisch
libros
Bryant
Olímpicos
politischen
##ján
##tata
marketing
rose
297
##dies
tyre
292
Churchill
arrested
powerful
Bus
##ént
économique
1764
Acta
Homo
##łu
Brisbane
Cell
Provincial
arco
details
##kola
Trinity
Politik
Mail
##lín
##teil
dati
Ultimate
560
Adventure
##stellung
Bezirk
##phus
Norfolk
##vés
Romanian
rail
profile
CF
##raf
Zwei
Connor
259
parque
##eder
Dante
decidió
gewonnen
Leone
ideal
enfant
Picture
Andrews
ciudades
Together
##yne
Train
##luk
stay
britischen
intérieur
Grenze
Thema
Trans
collected
Moreno
##escu
##tini
difícil
refused
##acht
familiar
Palais
##yard
##ović
debate
Bosnia
OH
produits
Tema
308
##izado
Vita
Johanna
MB
Rennen
innen
formula
##dler
##bund
busca
##uso
##eru
sitio
permanente
particulièrement
Uganda
chemical
LL
employed
##rique
física
##țe
lik
interna
hot
##pad
Sistema
Música
##úa
##ree
Rede
vit
damaligen
321
Marino
éléments
évêque
Galaxy
symbol
##posto
267
Sociedad
##far
Moldova
category
##cut
##rme
269
contrôle
##ification
activités
podría
média
Bailey
fought
Rodrigo
Randy
##verband
vallée
##cký
##ligen
311
##há
doble
##rand
##genommen
Anglo
Airways
Letters
##aza
##llas
größte
maires
Against
##familie
speech
citizens
yellow
tapo
Série
Quest
kilómetros
##nach
336
Antarctic
remix
quem
##ulus
Ensemble
##yó
critics
##TE
publications
##adores
Rat
Singer
medium
Trump
##skoj
Corea
Nur
Primer
approved
kent
283
Architecture
Saints
consecutive
universal
regionale
internal
Olympischen
actividad
##ček
Japón
Parc
Danish
Oficina
localizado
italien
##usan
Gilles
reduce
Parlament
Trail
Antwerpen
Molecular
titres
machen
Date
commissioned
##sul
faisant
noms
##dige
Isla
englisch
translated
Uppsala
Fédération
technical
##idi
offices
Lied
Watch
normale
tours
##enz
flores
cens
compilation
weit
performing
Negro
Creation
ocasiones
mineral
##raz
educación
ri
512
fie
screen
Robertson
Made
Estos
Mainz
ICAO
Fl
Anhalt
bara
##tland
URSS
municipalité
##RA
einzige
centuries
ose
950
Lennon
Ehe
Bild
Kenny
Bourgogne
##lí
Malmö
##vert
quinto
Pau
Maison
##oen
Henderson
##xar
##nner
##ank
##yal
##II
propose
##tno
Gay
Grad
Willy
compétition
Italiana
nahe
soldados
prop
gradu
Superman
mail
Morrison
returning
Lou
##ław
reforma
1730
##uren
Publication
session
Banco
bâtiment
Kinshasa
##wards
##hung
Schlacht
defense
##ror
normalmente
motion
vidéo
Murder
sexu
bed
##avo
Beethoven
##ON
Bon
Ur
##hood
Fan
640
Yellow
Reynolds
##dez
Ion
Franche
Actor
Latina
gali
##oor
intelligence
Championnat
suba
Caesar
Peters
##lier
molecular
Einstein
##vs
hp
##tku
abbaye
really
A1
Vittorio
tá
Ko
trei
##lee
beträgt
##vek
Stern
editorial
##rix
ds
pH
##punt
droits
escape
primeras
##hang
difficile
monuments
oni
##rut
Blanco
##place
vision
##uge
planning
dropped
##hlen
Triple
estrella
Need
Boyer
aged
##レ
sequence
##avi
Estas
divisions
335
visited
Trio
attacked
1755
Lynn
##chus
référence
345
Columbus
##inda
sections
##lling
##ead
Strasbourg
paz
Montevideo
Khi
Floyd
##ift
##uten
bisher
Person
##pole
##IP
modèle
316
##gada
subsequent
##gabe
grec
Abbey
##AC
évolution
Rise
Fish
PT
wiki
Oriente
stellen
Students
famosa
ways
émission
##kreis
aucun
AA
Claudia
Swift
Nine
Amanda
standards
represent
299
carácter
ind
##chas
apoyo
parece
##vine
Senator
attempts
##ingan
Ni
1720
internationales
##inio
##ología
carretera
Dale
boat
discovery
candidato
##jung
classical
spin
Bio
frühen
395
##table
293
faut
funding
##try
Jaime
someone
Künstler
describe
##stico
Piper
279
##ises
##verkehr
parole
gingen
Département
tomar
Congreso
institution
Józef
Gerald
1640
offre
opposed
Tore
##sort
horse
estados
volvió
Benz
broke
##wegen
Anzahl
stare
##lka
##ked
##view
message
Heroes
gr
adult
hors
##hrt
Rhein
Philosophie
Aquitaine
1021
Rivera
Fläche
Luxemburg
##urt
##lée
fuel
Nürnberg
unable
AT
##tres
##rici
atteint
medicina
Jackie
farm
##aut
##rali
##ktion
Ingrid
squad
##rke
##iego
Brunswick
believe
empat
Tan
futbolista
##eke
Pass
edge
##utas
Staffel
Rod
##xos
Monster
fiel
pale
##valo
biography
##pre
Format
##pra
##ntar
##rso
McCartney
selection
interés
exception
equivalent
barrio
Elementary
Abteilung
##cou
Jam
nombres
Yo
309
ol
318
##gare
flow
Fraser
##pil
nations
particuliers
aspects
Français
331
##ogia
##MA
##rop
##oro
Osaka
founding
determined
##iese
Aceh
Raw
postal
Gate
Ukrainian
ciclo
Campus
324
Haag
Ibrahim
Glen
Zahl
Sonic
signe
Laboratory
Financial
Vom
##cky
##ress
sech
abgerufen
retire
Faith
Seiten
##eal
terrestre
delta
Friday
Ljubljana
##nay
demo
height
Finalmente
Jens
GNU
antica
##rende
mala
Telegraph
##gers
##tele
View
Westminster
Rus
Pri
context
quedó
Gerais
nomination
##hing
feu
gets
Volta
##tari
Derek
increasing
campeón
lleva
azul
Ji
escena
Newman
converted
##sent
Ages
##markt
Farm
ell
price
clasificación
astéroïde
347
Fellow
educational
##sés
Drake
tas
HIV
difference
##kki
##ution
cantidad
choice
##čky
selling
curso
Markt
##tivi
developing
attempted
##iven
##lice
divers
späteren
Corte
##IC
##rando
angle
Männer
Ausgabe
Kiev
##lun
europea
AP
refers
##erade
salle
##spiele
319
doing
##tty
Amb
religiosa
Cox
Every
Ignacio
criminal
Tre
dient
dicha
##where
ambas
rede
##rike
##dah
Kill
György
Celtic
Speed
Erst
maître
Agriculture
chapelle
##xia
Andersen
Admiral
incluye
##ological
##para
Salon
##bok
Isle
peintre
317
Zuge
lec
respecto
##tid
##vice
industrie
##cado
##gol
10th
dicho
enter
racing
Mus
Rocky
Labor
allemande
meters
##iff
Colonia
radi
materia
Champagne
rating
322
pequeño
Recht
Schiff
vient
##front
cœur
##dó
Christophe
Herald
1759
Wings
enger
Sporting
leder
factors
CE
##alle
##play
Vorsitzender
domestic
Raya
##eman
comuni
Sid
onto
totalité
guru
Sang
##edd
##rani
##ád
##voli
considerable
CNN
Polo
sal
sorte
##mani
Cricket
mund
charges
verbunden
affaires
Wii
occurs
collections
fanden
##nburg
Arrondissement
direkte
ley
Disse
historiques
Bi
Electronic
##uir
##fra
pièces
##ob
##gata
conserva
##rale
Hello
equip
##tani
##lai
##ße
##fie
##smu
URL
Gang
worldwide
Sebastián
guns
tím
##hren
exhibition
corona
provinces
print
situe
straight
##nch
##elsen
representing
Luego
carte
UFC
satellite
##nsk
why
291
##lichkeit
##taire
ruta
Rai
pudo
arm
##zea
##gram
Infanterie
Cincinnati
shape
296
##hti
##sant
##gner
##cak
mettre
relief
EN
capacidad
Vida
gün
##mpa
lengua
##äs
focused
##bne
Saône
brown
bevor
Mad
orders
Crime
flat
Fredrik
dispute
talk
Nacht
values
originalmente
nuevas
##sze
Jura
##ería
taux
quite
Trinidad
Gun
entfernt
spre
##vora
Jenny
vide
Hindi
##zhou
Monroe
wind
Lei
Heute
Édouard
##rag
##vus
##só
lands
##him
##ikus
ego
antena
##rano
Rolf
##cles
MVP
influenced
##bana
Wenn
Elvis
canto
##wand
receiving
solamente
Vasco
diameter
basse
escribió
independence
anciens
##sum
##cast
meurt
destaca
Rice
franchise
Homer
Sandra
greatest
orbite
Balkan
##bby
Filip
tunnel
Émile
colonel
##ndet
Kyle
##base
consisted
##uis
Argentine
MIT
Estonia
recognition
finds
negro
Ole
##ツ
##rga
pueblos
352
Zo
Indo
publicó
##sc
Nothing
##long
428
##rei
Aufgrund
nor
savoir
Chu
##eka
##yana
Solomon
##rce
catalogue
constante
frame
vingt
404
políticas
wohl
298
570
385
Rotten
powiat
shortly
Stephan
Look
##tiv
eher
Nicola
failure
Palestine
ska
##hel
369
agricultura
goles
meant
Lago
attaque
1756
Reader
##porte
##ěl
Ministro
fruit
##nés
##lva
##utor
slightly
##krat
##plan
471
Judge
Belgische
weiterhin
Defence
Thing
##dü
judge
carry
recht
pequeña
primavera
try
##vier
storm
##inos
geri
##gesetzt
Reyes
##uring
compuesto
##mico
Jerzy
saa
##xen
##kamp
Suite
Bear
connection
angl
##uva
##chap
Trend
##ngi
castle
RNA
expressed
##çe
casas
Darmstadt
##ax
737
muestra
Sheffield
Suzuki
editors
Anschließend
mandato
##kra
##osan
Polska
Barnes
Schauspieler
Antes
reasons
highway
##kala
chia
##uck
##ğu
##bly
Perth
Verona
comic
contained
telefon
##ólogo
##bl
##tych
fund
européenne
flag
filmes
RCA
Caribbean
idioma
##lines
Runde
Hauts
Mohamed
administrativ
ersetzt
##ftet
bron
Contest
Emploi
respectivamente
script
mondial
328
Lund
Winkler
offensive
##átu
##ified
Vi
Vision
arrivée
templo
Haven
Johnston
rear
Später
larga
Mecklenburg
dom
##ril
Wonder
##rry
Oise
##rias
Blanc
##weight
valeur
##gica
Expedition
step
Saturn
1757
weapons
Gerard
literary
mando
calls
Mari
lediglich
##lter
Weimar
##lado
Irene
blog
lucha
##menta
Present
##esis
Bertrand
##kti
Stock
##kond
Heavy
##reich
Truth
comunidad
##öst
Bella
territorial
1761
##grafie
Funktion
capaz
Mustafa
Manual
Álvarez
faced
producing
Videos
backing
Trainer
332
Kraków
Brasília
hohe
##titel
ouvrage
530
##ox
##tron
##cto
Elliott
Glass
establishment
289
radical
##yre
##linie
Count
##AL
Talk
relativamente
Tiene
343
Tokio
##mena
Cathedral
cantón
##omi
##fon
buts
Ritter
adjacent
##zma
soundtrack
Salticidae
Nashville
314
##dja
manuscript
##dam
##ogen
príncipe
Motion
powers
Meisterschaft
##hill
##namen
McDonald
##aman
imagen
sollen
##bri
funds
Moscou
apertura
Res
##AT
8th
Burns
Pacífico
politische
##emi
##som
##witz
capture
Dorothy
INE
Marta
Brook
worn
führen
successfully
users
kill
joueurs
román
##cula
MD
poetry
exist
agents
contributed
devenir
Nantes
destacar
Johns
##zal
##yce
Chad
ausgezeichnet
##bria
##onda
##48
##hara
relativ
charts
jugar
standing
##ód
Nuclear
Harbor
petites
Lucia
ESPN
retirement
gela
Lotus
realiza
##enza
##nai
Ponte
##vid
address
##rated
Abdullah
Austrian
##hre
##edi
##schrift
toward
familien
tr
Porta
Hit
337
Chef
##nea
heard
##oge
qualified
##aient
Ernesto
##ison
Myanmar
personajes
Constantin
wollte
GB
Till
ronda
herself
publique
sollten
Woody
termo
opinion
Vale
Assistant
golf
cricket
wild
##maker
abandoned
##wali
Burgos
ferro
Schriftsteller
Reid
pun
##beck
##born
Tours
##leben
##asan
##zou
Kiel
sociedad
17th
Nicaragua
##tando
Mao
bureau
enthält
serious
walls
##kung
PA
Alexandria
405
Ost
##tup
##rao
glass
stammen
plano
##logical
Theodore
iron
disso
Manila
##zona
##tige
kalt
Lange
pur
Lara
gruppi
Deputy
fines
Monument
poc
fama
supporting
##rates
bilden
marché
Kao
versus
##esti
Mohammed
Chamber
tournée
##nov
##itor
Exchange
Timothy
preso
##sien
früher
reading
Metz
##edo
lorsqu
Eugen
Penguin
490
##íen
##ngo
Uhr
Vincenzo
condiciones
tur
portuguesa
##ève
##ily
384
##ğ
passé
##GB
Bro
plot
##berger
scenes
razas
##anta
luce
Journey
##mée
vía
##hta
Mariano
apa
##cita
##rth
Euskal
##not
relaciones
##eros
gelen
##ind
##yama
Buddha
Schüler
##gelegt
Gottfried
ronde
Geoffrey
Greater
##formes
pace
Cornell
fundado
brachte
##gida
Matthias
326
Gen
option
tenían
evolution
Markus
sought
bordo
Janet
Net
meilleure
Logement
401
Mendoza
Hook
##oki
##bruch
##ňa
Artists
besten
Soldaten
Bengal
Hannah
locations
logró
##dens
reserve
Pereira
##US
##gler
Gott
écrivain
##hol
##motor
Bali
save
##nco
laid
diferente
Guerrero
Beide
rete
Piotr
Studien
##tación
boys
anden
sp
Süd
##gun
stala
##nico
Carey
vertical
niños
##horn
Legislative
designer
eye
##fläche
1680
Versailles
##vía
387
Jamaica
WC
Lynch
environmental
##ologi
Nikolai
##urus
lettres
partit
Maxwell
Joy
investigation
Rouge
Players
contrario
##teurs
Dictionnaire
occur
Chester
turi
##mere
##cola
412
Seconde
##hall
##fest
Parish
##tale
##sir
Zona
Occidental
arquitectura
Casey
östlich
Tito
devenu
##iation
chain
Corona
Kraft
noble
Ejército
Fleet
##rain
pet
individuo
##lana
Jugend
##30
diseño
erreichen
393
taille
mining
objects
promote
##istische
dirige
##kli
médico
ménages
Brazilian
ruso
comprende
##werke
1745
##alen
vitesse
Oskar
##gil
##lone
Excel
dominio
incorporated
##lach
Paraná
##isan
Mystery
Dienst
modelos
alcalde
courts
trying
máxima
permettant
township
cuyo
##mene
Sy
##iras
cent
Turin
apparaît
##jeni
graduate
económica
inicialmente
valores
gobernador
Normal
humano
Pieter
1550
1754
##nement
##sai
trio
Ashley
Roth
westlich
prize
Mini
Milli
Using
##nare
Alban
##cial
ill
##cel
equal
Crawford
erbaut
protect
##zta
rod
##ogie
##digt
Heat
Lions
##ssant
Joshua
##qua
maintained
##ligi
punta
wave
##ital
##otas
CO
##gine
##ST
Midi
Lai
RS
northeast
teen
##didae
Gegensatz
franceses
##lto
quinquennal
1715
Indians
mediados
Austro
Results
Breuning
starts
294
Freeman
Medina
Oil
##tab
##reu
Campos
##borough
Hood
Militar
rat
Communist
##kara
soul
Chapman
segment
Monde
Burke
arena
##sada
economía
ultimately
partiellement
device
cour
Split
successor
##ndt
ocho
##nil
Half
Mitarbeiter
jap
sana
deri
télévision
orbital
manos
Thus
Critics
##ating
objeto
Eve
Péter
hectares
Wheeler
Ground
Kapelle
fleet
Arturo
##ack
Rex
Within
HK
##ström
passenger
weekly
romans
loop
##fter
pure
##ticos
agricoles
acceso
Juventus
##usse
jury
morts
##rai
duque
##eny
Mathematics
aspect
355
sigue
##nberg
Tonight
Bürgermeister
proved
beteiligt
continental
pratique
1630
Sumatra
specifically
Zao
##mur
diez
rich
Winston
avoid
gracias
decades
Greene
bald
natal
Construction
##alis
Somme
Gardner
##dienst
acabar
580
##logo
Nils
árabe
islands
regarding
clubes
1620
couleur
##uze
356
##station
Pius
statement
verlor
magnitude
##ț
367
strength
Though
##mmen
Alfa
Kassel
Todos
##ems
##fers
saber
headed
nothing
heraus
startet
##bida
Mickey
roof
pièce
Parlamento
plutôt
Them
lignes
philosophy
Abel
definitivamente
##echt
##dür
entrance
torno
possibly
##ética
actualidad
racial
##redo
##umen
Brother
Presiden
##tato
Hearts
Lexikon
passing
loan
invited
##rp
views
1710
Memphis
##pati
compete
Oswald
Nicolás
enquête
##card
nächsten
estimada
Prag
610
PP
Tradition
zahlreichen
Carroll
Rush
425
candidates
Genus
Slam
##iak
alguna
carga
elenco
##maya
Jong
merged
theater
Whitney
Salamanca
##damente
Paulus
educated
##reo
Strange
ach
officiel
##ési
Rand
sencillo
##position
##iner
Camera
##twa
rosa
compris
##udo
##olta
Musique
keinen
mention
culto
Pere
Midnight
Resources
assistance
wenige
dor
##sser
hauptsächlich
winners
##iler
numerosos
1748
plaça
lanzado
Isabella
354
Student
Schools
##wich
Abd
##nese
##unk
Rue
heavily
Sven
##isin
aves
decreto
firme
##mber
foundation
dating
camino
estan
16th
animales
##cara
##eca
357
Australie
1038
célèbre
manual
derniers
##rid
##runde
Vuelta
mines
##vod
kara
foren
##zze
establish
Erebidae
corner
trained
##bed
Into
Brien
##polis
vasta
Essex
Sally
maso
productos
cadena
Año
files
Agnes
Verfügung
##right
comunicación
Baviera
##oid
Interior
##wat
Physical
Joey
antic
Alger
sil
freedom
kor
registered
string
Kabul
Classical
Finlandia
ene
sel
##ppa
destruction
walk
747
menores
##dai
reina
speaking
dro
accès
##wall
##iaceae
Prague
Donna
Oliveira
##master
##gard
Bilbao
Bukit
Kampf
Gustavo
Athens
Bandung
STS
##lund
Penn
representative
Gill
ponte
##ñu
##cana
Alexis
baron
##had
Av
cabinet
##ED
leg
Recording
regiment
Elles
resistance
##berry
Dietrich
Smithsonian
416
presse
wood
Panzer
amerikanische
##vite
Bart
inscrit
península
Hernández
Stadtteil
tradición
##old
Visual
Brno
futur
gesamte
ná
##fur
Levi
##uts
##yet
residence
mayores
tons
Fr
Fundación
Municipality
personnages
##OW
Ramon
huy
Wald
Armenian
##rait
Cry
Federación
sols
##area
Problem
Auckland
329
Editor
Stones
13th
Ch
Bates
Desert
consiguió
prise
##DS
##vist
heat
334
Dortmund
wir
Waters
Percy
Lenin
semanas
Typ
##ivu
Drug
camps
ADN
Rhin
Metern
Challenger
br
improve
Rheinland
contrast
demás
números
mariage
Zeitpunkt
Doug
dona
Frances
Baru
##mbre
lebt
##gara
##ifs
368
630
Self
contrat
Gone
##enze
error
##lkan
##šo
Fight
entirely
Lopez
gaz
destino
Ciencias
présent
11th
##NG
501
##tano
engines
Frost
##box
Joint
scheduled
Willie
Petrus
acte
Blu
Perfect
##mite
##gesellschaft
estudiar
mitad
trai
bodies
344
##rial
items
##uun
Bauer
Ley
insects
fusion
##cil
##aes
dadurch
romance
##eln
Queens
Webster
##tier
##diri
observed
##³
malgré
Genève
rooms
Explorer
coordenadas
jeder
películas
actives
pilota
951
armed
experimental
##ids
mese
pool
uten
##sper
reaching
aucune
würde
##rest
machines
Vertreter
peak
toma
Rainbow
moderno
seems
##itti
ethnic
knapp
baja
Alma
Tina
##tett
Arroyo
casu
duty
sécurité
327
hundred
##tna
killing
Hip
##rons
quatrième
qualité
##mand
eröffnet
Minuten
##heiten
Ronde
##17
Tech
##istischen
stands
##lev
utilisation
neun
##onte
looking
proper
Graz
Nun
seconds
##rig
1751
biblioteca
##jek
greco
skills
prueba
##zás
##rez
operate
Thunder
##sitz
limit
españoles
Stella
##ear
##quée
interne
##mun
closely
##gestellt
elas
landen
##voir
consisting
finishing
Strauss
##grada
hielt
Révolution
Palestina
##cciones
##ilis
máximo
Word
Marguerite
mon
begonnen
Weise
Maler
engaged
components
inclusive
##vol
411
Cu
principaux
##linge
##stri
demand
##sid
inch
installed
##lder
cena
Delaware
Romance
##utan
Bowie
SG
##inae
##lyn
Abschluss
didn
Table
Luftwaffe
Latino
342
##tni
1707
Königreich
olympiques
451
##grado
##gene
podía
Basic
Diane
gouverneur
Europea
Giulio
Bolton
attend
Riga
brain
opportunity
instance
Ramos
Fly
mig
anteriormente
watch
Unterstützung
##grad
351
blanco
einzelnen
HTML
costs
##dés
bill
Blackwell
##itaire
12th
ehemaliger
##lique
propaganda
fest
##olu
##lino
Heights
tiempos
Serge
padres
##kende
##dition
Centrum
Kingston
Manfred
##cación
papers
rolle
Vainqueur
café
##vette
alias
Boulevard
##rska
Bahia
##hart
##gebracht
utilizar
Style
##izada
historische
Zimbabwe
revue
twelve
##stro
Slovenia
voted
moyen
##jada
##vest
dier
noroeste
##âm
pu
Rail
hela
##isierung
Punkte
tel
improved
isa
Drew
Hamburger
Environmental
Goethe
##ians
1714
##ivat
Egyptian
Anschluss
Aurora
Dee
Kara
##rón
lebte
jefe
agency
passer
Tomás
avo
Motors
1580
##bur
##ners
leicht
allt
Quinn
flying
textos
vermutlich
europeo
Lionel
Winners
Fou
dura
##wyn
##dl
##weit
Alive
causing
°F
pad
##simo
##pense
ceremony
601
##tros
Fußball
Progress
Towns
Porsche
wikipedia
##ijo
Care
Tribune
erfolgreich
Formation
singing
##tete
1741
##ichen
Touch
339
##gai
Mallorca
Direktor
independencia
persons
##tima
erne
Karnataka
Hammer
Stück
apo
Brasileiro
##nei
majorité
fe
Walsh
flora
Logan
resigned
bottom
drawn
tatt
Bangkok
belga
milli
describes
reform
Essen
##ister
##unto
dollar
advance
quienes
gleichzeitig
##rás
Nem
Taman
##çu
Fluss
tela
quitte
belge
capitaine
Lot
Macedonia
##etes
Alman
severe
Mick
##ansa
##ography
jeux
valley
Praga
mio
##club
crise
Everything
chansons
leads
##gur
##öz
empire
Gas
getting
##ngs
exploitation
1690
Coruña
##chem
trägt
##pic
shaped
##mot
vite
empereur
presque
Gunnar
Strand
earliest
##mare
Vermont
ruled
Webb
campos
tests
##mh
Blair
##spel
Qatar
##sil
##pal
regarded
heißt
Katherine
##rete
lire
##sam
Laurence
termina
sujet
animation
constitution
Irland
##orden
Padre
510
initiative
Better
##rone
Christie
contribution
dijo
##bula
factory
représente
NK
##inus
Wade
Mo
malo
moitié
Croatia
cable
jau
##ït
Hassan
##yti
##americana
plane
1930s
Dinamo
Martina
Hoffmann
falls
Eltern
localidades
stages
easily
1752
dre
n°
Kristen
artiste
survey
Arms
Heavyweight
musician
seguida
Judith
##hire
##tivos
##gegeben
Estadio
fashion
employees
Aviv
##neb
AE
Conde
branches
9th
##RO
Juegos
Sand
Teen
api
sete
lige
##chung
northwest
lateral
##oss
Joyce
##iec
##olis
##gile
##qa
combination
Battista
Wehrmacht
agente
Región
haute
953
vaste
planét
Rhodes
Preston
distributed
Blanca
Peninsula
##weisen
##vada
catholique
Indianapolis
Umgebung
Moritz
raza
Past
Personal
Portrait
Palm
darüber
##lden
Laos
##lau
##atie
För
historien
##lf
infanterie
reis
ningún
Anita
Vigo
##üz
##aris
##vida
##imiento
##elles
cuya
##lid
supérieure
802
Lin
centres
mejores
##fic
Junta
##mbe
##ams
Konstantin
anunció
Idaho
##ichi
Factory
accord
sung
1735
##ail
Terminal
Pre
Dubai
##talt
1520
##chis
député
##mor
##yy
##ncias
USB
Ei
transmission
Avenida
presa
##cian
##smus
##ibus
mêmes
mur
alba
##uw
öffentlichen
##eller
##lato
##tl
Image
525
opus
longue
rechten
behavior
##deren
##ïda
##yra
##éra
##rose
Wort
486
##quin
Romero
Beauty
creada
Left
##tun
pierre
Guest
fri
##dors
zuletzt
625
kleiner
1610
Savoie
agricultural
##fié
##lida
Dar
Lancaster
##kup
353
tribunal
Armada
Medieval
Rider
massive
Burma
ond
381
359
##mpi
Eden
##ダ
ket
Genesis
indem
##cias
Hop
distinct
1689
definition
wake
Somerset
mindestens
##tius
##beli
##cine
##teri
Compagnie
hired
paintings
##lp
##ched
Cesare
##arre
belegte
Higher
vast
kaya
##tara
##zana
##kit
efectos
proximité
letras
Luciano
##iol
betrug
##burn
doivent
##nius
Warriors
##oren
Windsor
énergie
Lucien
Meer
argued
##tana
Valladolid
Bari
##ficar
Chapelle
Airbus
Camille
##mera
gestion
Cher
Much
Sharon
rap
Joaquín
##ury
Glory
Wong
##tner
Cities
élection
##sement
1670
##tá
kis
nimmt
opposite
automobile
##inge
kanal
##lski
Hanna
363
366
enseignement
stieg
représentant
Lily
Concerto
##grafi
Mediterranean
ahead
##dna
##istan
##innen
##mila
piloto
##inte
##nung
considéré
Riley
IGN
garden
1701
humor
suicide
Brücke
##lge
weather
1742
Europaea
383
##ctic
##holm
participants
secteur
palabras
Canyon
##satt
Estudios
Roi
ones
cop
##iq
Mega
entdeckt
método
##rl
descrita
gestellt
arrière
##rito
mussten
##ability
médaille
Goes
Herbst
reaction
brug
Familia
writers
##lika
361
##pone
require
construite
BK
aria
##dió
Chambers
417
stating
##izar
bras
Thierry
1ª
##グ
##bart
publie
característica
Aisne
metra
cousin
Ek
Mama
##udi
Ordre
termes
Edit
##run
komme
Accademia
Einfluss
populares
indicate
##lno
720
formando
documentation
##eim
##musik
##irs
Elias
##EC
Veracruz
Auftrag
carica
cité
1743
zerstört
##orio
metre
carne
1688
bietet
elegido
Jena
##uras
fiscaux
tí
decade
vuelta
##jahr
Shin
îl
##sima
idée
##pé
défense
##rais
Sobre
Hayes
geführt
letra
update
Sandy
##lá
Structure
##nies
régions
prove
##rick
407
réalisée
commandant
Príncipe
Palacio
Qui
680
piedra
Kristian
historiador
##hun
plate
1746
Eure
Hey
folgten
620
hak
Paper
##ehen
Iris
##cej
##äder
##alia
341
Caracas
transition
##nait
circular
##tatt
007
gefunden
##wert
1713
##IA
Oy
comité
titul
starred
Ming
Biol
secrétaire
##rona
##BA
seigneur
contain
1683
stores
##deki
##lten
WWF
royaume
##rva
##sted
476
verläuft
1749
Natal
interests
##anya
Tomatoes
dil
sogenannten
##mou
challenge
Virgen
syna
continuar
Canterbury
Memory
##nor
Agent
alcohol
numerosas
territoires
mir
##jian
injured
##itud
porto
Anlage
gens
##lers
##puesto
##wissenschaft
Chess
Something
mean
##itar
AIDS
reas
##lock
##lib
Médaille
vero
Clay
##üne
Metacritic
joining
B2
certa
##bene
590
403
côtés
Kerk
1723
chargé
Gregorio
Beiträge
maju
Male
432
Programme
##SC
exposition
##eki
Mientras
Gustaf
Innsbruck
##rach
Cola
tenor
actors
documento
431
gender
broken
##otti
Referee
##ouse
1747
objetos
##zig
shall
##vt
actuel
distribución
##ctive
antico
##onan
##haven
Fighting
##evo
1744
Million
##stelle
tall
Marianne
##uelle
##gación
Operations
Gardens
chaîne
Wesley
pattern
##ark
Instrumental
##hra
affected
reçu
poema
##gment
directamente
Liège
leben
paar
##sht
15th
possession
##tsu
sell
Sister
Andersson
biggest
465
Stunden
IEEE
1721
Asie
Friedhof
Lehrer
briefly
oficiales
tierras
##itung
IN
altitud
participate
Sparta
Papst
VS
##rene
Baba
drop
Gaston
Annales
enam
tuvieron
##lise
conservation
456
##DA
Martins
Classics
panel
##pass
ago
Oeste
Said
##ラン
##rto
Audi
Ferguson
éste
##etik
erfolgt
Environment
Milwaukee
##kali
##mista
##cov
encontra
Comisión
Horst
##hoff
defender
402
Hagen
Arc
##zim
Sing
DOS
Zeus
##ener
existen
Fi
wiederum
blancos
Turm
1492
Zusammenarbeit
Give
disa
presidential
peuple
##ption
cinta
catedral
quinta
travaille
##cieron
trabajos
chant
##erse
##ficada
##mee
Viola
phi
reprises
EE
Relations
423
Nixon
próximo
séries
##uil
Election
##ffen
Madeleine
Thor
2ª
##odes
productor
catégorie
##vig
##AM
Aïn
Benito
##vise
Viking
##TS
Verwendung
sabe
analyse
hôtel
1530
##sport
Zusammenhang
##kowski
Lur
##ogo
Phase
Maximilian
Hasan
aquí
##wska
##eum
##arte
eso
classic
despre
daraufhin
Baptist
übernommen
pied
##spielen
##face
##dda
sah
gesamten
fonctions
protest
##anos
##lets
Hauptstadt
musicians
Learning
Tri
Beverly
represents
##ppi
Belgian
##rova
Giants
##rup
##sina
cuarto
Spielzeit
vent
Protection
##sweise
lima
variante
Underground
##tei
##rki
##ác
Inn
1718
dominant
appelée
Hebrew
528
realidad
Evan
esso
Territory
348
AK
tournoi
Bourbon
statistics
##dant
naissance
operates
constituency
jugadores
purposes
##NA
##tadt
##pul
Formule
Turn
##tero
##phila
verano
Moses
alliance
picture
##ientes
soli
1570
agar
##nehmen
typical
##eis
##lei
##mates
Nov
songwriter
cultures
großer
##igan
bak
##EA
temporadas
##ités
##page
dry
distintas
southeast
##sland
razón
Groningen
1540
##kum
##won
histórica
Twin
choix
1667
inicio
ISTAT
960
pick
Independence
##smith
examples
Stad
ausschließlich
bout
argument
##bine
reti
##æk
Attack
##asti
##ften
Biological
1736
##risch
artificial
##br
##ways
degrees
1603
##nate
energía
##jam
colors
diz
435
408
notably
##nü
376
Dazu
Fear
carbon
Erwin
Oak
##nha
técnicas
##alta
goods
operator
incompleta
Won
##nol
regularly
partnership
robot
terminó
##eme
1727
crimes
überwiegend
##cile
Karlsruhe
attached
prese
1685
8000
oral
##TP
##itis
roads
346
langen
ocupa
golpe
perhaps
nacido
Isabelle
sao
1560
Einige
siècles
Hour
passengers
Color
Chronicle
neighborhood
path
##pina
credit
calling
Well
##ush
madera
periodista
designs
364
survived
##rog
Chance
Tall
Finn
##dak
Ajax
Toni
670
##gráfico
##wem
enfin
Café
santé
##tasi
concluded
pocos
Samsung
Soviética
##OM
Olsen
1725
1632
edificios
##pera
##blatt
1711
statut
##bereich
##11
##szeit
presentar
utilizada
Leader
Tracy
1970er
##hrung
Cataluña
output
##sty
##fre
##ösen
Peterson
usada
dens
gamma
understanding
Jump
efecto
false
replace
anniversary
##nni
atrás
islam
Audio
Manitoba
iPhone
Boden
##IO
Lives
##liches
##isches
Read
longueur
galt
Irving
seventh
##richt
386
Países
##llar
Dancing
Gard
maintain
1739
cita
##ddi
Willis
underground
naturelle
reine
##cek
Animation
trans
##stí
deed
##ager
1642
##mini
379
cielo
##top
hermanos
362
Poco
##lega
Finnish
Großen
##data
##ances
Vargas
Very
determine
##sque
##má
cambios
gehörten
Current
tipi
personi
southwest
##16
accused
vollständig
trip
1007
382
gemacht
Dem
Kay
NS
autora
##hair
##schluss
Tätigkeit
classé
europäischen
##teli
Luisa
Larsen
Wei
Verfahren
drum
Initiative
parla
##ān
autoridades
Calgary
Trondheim
373
Level
##bras
bestehen
colección
programmes
segundos
##sert
oso
turns
Bolívar
Elite
Cancer
##work
##nike
dispose
heutige
noi
unité
profesora
nm
Morales
##bird
##ôn
Comic
kin
Napoléon
Purple
##sive
1737
Sugar
##pidae
Material
660
SMS
##isant
bandas
##tionen
371
Cecil
PhD
Marek
##jang
request
##tici
strike
Darstellung
Brest
Outstanding
painter
##15
Hull
armada
A2
ciencia
Parmi
##inal
Constitución
urbana
actes
Nouveau
Registrar
1724
Economy
calidad
HP
discos
Durham
showing
378
Grote
Brandon
Cheng
Programm
erschienen
1654
Alternative
concentration
ataques
##md
actuellement
##bilidad
intérêt
Ediciones
##blad
Griffin
BAFTA
##sian
##ören
##vai
##zando
técnico
bronce
welcher
1672
scientifique
Chapel
Lausanne
rien
actuelle
delivered
##even
Dès
Cairo
##tam
##lement
##tives
##pha
Combat
##tian
contest
##fice
militaires
Eagles
##pot
##IT
Preußen
Commerce
legte
##cro
Alegre
Marian
##ordnung
429
##tles
##viste
existencia
##rje
349
Católica
wichtige
Edith
taj
stem
##ogy
##éry
DB
videos
alpha
rechts
409
##zm
secretary
##idor
##agen
plante
Tomorrow
7000
código
Cassini
##dose
##wl
1709
414
##graphic
Kommune
##lera
##jera
Impact
murió
sexo
capacidade
Springfield
1722
##ané
plein
1728
Grafen
soprano
358
Má
Behind
basada
##chos
1002
rendre
##vir
entreprises
masse
Broken
faible
##ulated
##ncing
religioso
##jö
classique
##üsse
amenities
##nsä
client
Pisa
solid
princesa
Carpenter
task
Rules
Schumacher
ASV
businesses
Socialista
fixed
Representatives
Punk
##omen
Sous
Béla
Volkswagen
##rious
Save
vont
landing
Emanuel
##bbi
Label
littérature
dedicada
##law
convention
##rena
IL
lar
##hai
Gibraltar
##anas
ocupar
999
##szer
tag
##pico
##riva
##cea
Aufgabe
peces
##quant
394
427
Orthodox
atención
virtual
##oke
##zym
verließ
Mons
folgt
Newport
##wal
##tain
chun
autori
eut
##iver
metropolitana
purchase
##hne
beendete
driving
Carnegie
publicar
Verwaltung
Conservative
399
sec
islas
credited
Ländern
verdi
Mode
##lou
1733
Dirty
Chili
Wimbledon
investment
##craft
residential
integral
ganar
indicated
centros
Heimat
linked
##unge
Serbian
dî
Modell
392
Entdeckung
Pole
Benny
Banda
Folk
Bibliothèque
##cosa
Gora
Turki
##cidae
seal
utilisée
painted
neuf
Herr
Sophia
grau
sert
feel
moteur
probablemente
##icia
Saga
discipline
genommen
##AS
1661
Ride
Noruega
Treaty
Bravo
ev
##icio
##ced
Card
conseguir
Borneo
Proc
Senegal
António
lawyer
##ković
##ivas
##älle
Killer
Montpellier
pasado
##body
##fold
McLaren
##nez
Ladies
475
##ieri
royale
incontro
tries
creado
##40
Kopf
storage
syndrome
advantage
devices
südlichen
Borough
playoff
Break
spire
Jeffries
extremely
Olivia
Besar
Doch
fondé
ministra
eyes
##wicz
poblacional
##mane
participa
teachers
##gau
Aiken
tren
Marcelo
Yugoslavia
guitarist
entrenador
photo
churches
Psychology
##dte
Haiti
romaine
committed
lance
qué
Ficha
grounds
arra
Working
impossible
rates
schema
concerto
arabe
territorios
453
Tak
##oner
1590
urbano
moda
WM
Falcon
##atz
691
##gled
##sby
##brica
##bling
##away
Juden
charged
##klar
##naires
permis
Edmond
1732
couples
Neill
ciclista
SF
##iles
Baja
Fleming
1980er
##eles
##landia
Einführung
Keller
##ucht
##vka
litt
returns
deshalb
##hden
fondée
testing
##ils
Marilyn
nomina
388
Monate
premiered
Gandhi
GPS
ingresos
1598
Pi
##nó
##cino
442
Oakland
ouverture
Coach
##FA
Faculty
gi
Mumbai
sculpture
nuevamente
systém
Capitol
realmente
cun
internacionales
Mata
911
Vernon
##nnan
##nken
selten
##pter
defensive
1717
frequency
engage
Cloud
Gaga
praised
Stimmen
14th
probable
Zelanda
lieux
21st
Quentin
altar
suyo
régime
##óg
##szy
Trevor
##AP
mye
appel
Sussex
Armand
Morton
stable
Pol
británico
Essays
owners
afirma
##áz
erwarb
##sem
##forme
##isiert
entlang
nichts
Pearson
negra
Valentine
Lumpur
Tübingen
Lieder
##ccio
reale
##rell
##mannschaft
EA
langues
##dido
component
veut
Víctor
poverty
verkauft
Có
##tama
##lex
Br
Allmusic
kim
1618
397
protected
sl
##ater
##sins
##stwa
##gian
plataforma
Finance
Dirk
Fourth
îles
##chester
##gga
##mik
SSR
voto
extremo
lap
wuchs
accessible
sed
visa
Quand
guida
Hold
##ably
subjects
1708
Ra
policies
domo
pain
aguas
núcleo
Roche
Pierce
Peña
autant
reign
Noel
dimensions
1704
Americana
666
Silent
traité
377
measures
patient
HBO
448
##nale
##serie
coupe
##falls
Hidalgo
##americano
pape
Core
jouer
Shirley
installation
Tigers
entertainment
Herren
421
##gea
controle
372
Mejor
Reina
Yahoo
pittore
##uale
MG
Guru
typ
funciones
##phon
##osos
Kumar
##rro
abandonar
##coming
SH
utilise
KM
1625
tableau
##rator
measure
hauteur
dynastie
lebten
##oak
1250
incidente
Verdi
Olympische
##tch
422
2º
franco
##ovia
Marathon
Wiesbaden
##ateur
1621
posee
##uche
Reis
##cier
Grundlage
linear
455
Avant
##dades
##neur
Lena
Garonne
Leicester
menudo
Safety
wirkte
Fields
##esh
Griffith
bonne
Belgien
montagne
1960er
interface
Boot
Medici
zusätzlich
Communication
1699
Noël
Sahara
##mant
Sisters
A4
##uire
##IL
iOS
server
verk
durchgeführt
clases
Wissenschaften
##mps
poem
Crisis
identification
##fallen
publishing
Medicina
1734
Würzburg
conto
química
asti
Victorian
NSDAP
pourrait
réalisateur
filmi
fired
Siedlung
##westen
Schotte
Ruby
théorie
posteriores
##itie
filles
374
Zamora
Protected
Rabat
Voivodeship
##erin
Arne
Fletcher
Ito
1738
##vern
ide
kolo
assembly
Komponist
##ncio
##udet
Maggie
Siena
raso
Chor
##kko
Puebla
##şa
##oot
Moss
##BC
##nko
RP
shooting
##vare
vin
##sine
Darüber
##ope
mali
Meyrick
Raúl
##bane
##fire
fai
##elis
Gates
Lazio
##rische
##vage
jugó
Support
Brief
##alde
##yna
Mussolini
Actress
Cabo
Señora
Mannschaften
Adler
##stück
damaged
##vila
Donau
Jenkins
##SE
##ood
Kalifornien
##cios
heritage
Kerala
directement
Schwarz
window
##tlichen
##ritt
Toscana
##GA
meta
pequeños
composée
derrière
##elem
##rite
formó
##sund
##hten
##uko
##gruppen
zwölf
concurso
saisons
shop
debuted
energie
##ätt
##rtu
Savage
sœur
Coming
horror
##nell
##nton
Issue
Phantom
presentó
katholischen
dam
novi
##maz
leitete
wounded
consta
movies
473
##usz
guitare
Bildung
Ham
Cardiff
Dinamarca
CPU
officier
##char
professionnel
fragment
coal
##hale
musicales
loin
elf
carrying
##cts
alternativa
Sharp
Scots
##ęs
processes
mito
##iono
entrevista
Bewegung
Baldwin
1703
##hic
Grenoble
earth
##quier
Musa
##ミ
##sión
historischen
fantasy
atom
Venice
##vra
##abb
Piazza
alma
Ronnie
ríos
define
llevar
Ferreira
##wehr
donner
##dot
##ull
##xu
Poetry
locali
Homme
Reims
Educación
413
Sedan
podium
V8
portrait
nav
restored
continent
Based
piazza
##gée
kop
cai
##OL
joué
Brescia
Frage
Obwohl
requirements
Kirby
Drei
Françoise
filled
Landesamt
Kanal
##werken
Organic
ros
copa
Manufacturing
stood
##formen
pos
cappella
differences
Marius
Feel
1675
Guadalajara
Falling
wilde
Victory
##xido
##geber
verse
anderer
Scotia
##lás
Alicia
publicación
ord
##illes
Wave
Loch
économie
Salem
##uba
llegada
conseiller
Jak
##ionen
##satz
Than
Salvatore
Schweden
Vanessa
affaire
##ssent
res
physique
tonnes
##tigen
##iato
Forschung
Coleman
municipios
responsibility
Lama
Gent
puissance
##kins
marcha
pena
hosts
##lur
##RS
forêt
Mon
partial
authors
départements
separated
##eries
chapter
frères
##onn
weiterer
llega
##ondo
learned
1521
Sylvia
militari
documentos
mol
##aid
variables
1609
Boca
seien
criado
##grund
Shannon
##vention
##wahl
figuras
rejected
missing
observations
##finale
Romana
Kui
##bh
Kritik
propiedad
##tán
##pse
Cornelius
Junction
Vic
requires
Moyen
Female
##csi
LGBT
Saskatchewan
arranged
1702
architecte
diario
##estä
RAM
viu
stress
décadas
Giant
Fontaine
Sanders
Mirror
##bí
Olympia
eind
capitán
Torneo
Wyoming
Freud
acerca
consumo
##qui
Being
426
##inan
Dixon
Daneben
cómo
Communauté
oben
Charente
Perkins
regelmäßig
sección
nomi
passant
Pratt
gris
Vest
Methods
##emu
SI
1666
nacionales
##baum
membership
604
referendum
familias
##lech
##mte
Filme
Mädchen
1605
sm
Lie
Primo
otherwise
rango
##ink
determinado
1697
dated
critic
Welcome
469
beginnt
##inar
##post
pronto
copy
rapper
##betrieb
vino
comienza
convento
manner
Campaign
bâtiments
linn
Ser
1649
unió
verliehen
Hari
CH
continente
##dala
Associated
rapid
##itza
##vation
##osas
1450
##edes
caught
tribus
##ices
##rgen
driven
illegal
##ester
misión
Herrera
##HL
##cito
##áticos
réalise
Santana
##íl
##uki
##laze
eaux
perspective
prepared
naturaleza
pia
hiver
1990er
##ément
Mannheim
mét
##hor
Agustín
D1
recibe
##mada
##èle
bishop
Grade
anna
##zano
soutien
Easy
##amo
courant
retained
Acad
bomba
assumed
conjunt
hardware
##ssion
cuanto
schwer
##14
seguridad
##icy
Hesse
##force
VHS
Wildlife
potok
472
Stark
Terror
Poznań
Blanche
Jet
velocidade
administración
Timor
1665
toutefois
##izing
créer
accompanied
1712
Insgesamt
numéro
##hain
expert
Vocal
Alone
Bombay
heel
thousands
hoch
planes
##dine
venue
Close
Fin
anar
vore
Möglichkeit
##ége
caractéristiques
recuperar
BA
faculty
508
latín
chair
artistique
##rco
##quí
##used
resolution
##ying
1635
##ndre
##kari
áp
quelque
Mohammad
Lebanon
Anime
arriba
françaises
giro
neuer
##wu
fallen
Lig
RFC
Mel
389
homem
Fußballspieler
CP
críticas
##gence
##czyk
Higgins
tribu
archives
##rau
RC
##jul
belle
##suke
##esten
disciplina
schnell
1719
venta
windows
Allerdings
concours
GM
ski
Parlement
Karol
dejó
suggests
##juan
baby
Bradford
mieux
Guild
##ître
Circus
intervention
##eed
triple
Direction
balance
seront
Devon
##cit
suivi
Release
derecha
Gesetz
reinado
popularity
##cule
##haltung
denominada
Yuan
solista
Großbritannien
Holiday
1655
##vania
Buddy
cards
Reise
Johansson
struktur
Cecilia
IS
1525
Beast
Partit
premiere
Wochen
brak
ciel
##dri
diesel
Mio
essi
Schutz
Tourism
ov
Cool
similares
Friend
##rve
Philips
bandera
##color
1716
arrangement
zeigen
denominado
duties
##posa
dirigent
independiente
Industries
representación
erstes
arrival
Holt
464
##orte
Autriche
velocidad
396
demanda
##nst
algún
capa
##stil
##bru
##ruk
hermana
##yx
Access
progress
518
Natalie
Weiss
Paramount
1572
Ant
##toi
bits
##cra
objets
##ciel
juegos
Bey
admitted
dritte
maintenance
##stische
391
Colombo
involving
Holly
##nade
couleurs
1093
##ôme
##turi
Erde
Beta
significantly
##isée
hr
1729
##hnen
marido
actuación
thing
##nisch
drugs
Rouen
Augustin
meets
Shane
##hima
artes
spielen
1643
Meuse
marina
eman
conoce
espagnol
Wert
pang
obstante
Soon
spor
Casino
dynasty
##ntu
##imin
arme
##onde
Buck
##wé
1658
weitgehend
##uny
Ricky
buena
Noch
catalán
##court
##fish
##dha
fil
percussion
##cteur
Didier
textes
Yi
Marin
##rsa
Tucker
parliament
práctica
sér
Nationalmannschaft
evo
##wege
##tot
505
Toro
Letter
##istica
cili
cantar
roughly
##llt
Along
##yong
##éndose
1731
Interactive
##zam
Abschnitt
Nowy
kong
skin
Bere
##gehen
##sicht
characteristics
Brain
policía
voïvodie
Andrei
Genre
Globo
##gemeinde
Málaga
Ballet
##logue
favorable
##ánica
universo
orchestre
Roses
Städte
rápido
Algunos
760
424
##byen
Punjab
klar
Brabant
vorhanden
Rhode
Clarence
##setzung
considerar
intento
##udes
Seth
##mum
Nigel
##iks
Persia
##rats
gate
hus
##uela
descrito
Yes
##plex
Angaben
Gallimard
##rage
Quellen
inspiration
446
Monday
Punkt
Principal
Molina
##rds
journaliste
experienced
bekam
weltweit
1706
##riff
##holz
Nas
##ój
leva
longtemps
##versa
Aston
##oll
Villeneuve
##hit
labour
Barrett
problèmes
infantil
circulation
Troy
##nnen
ensure
Tobias
eins
mémoire
##ridge
creó
Ms
alam
Panamá
Annals
legislation
idee
Voyage
Plymouth
Winner
Northwest
##eras
##boy
coronel
hair
Campania
graves
prensa
insan
##ejo
else
1536
##ardo
##lut
##ngu
Rising
adapted
relationships
##sminister
##gente
Scene
Regisseur
##ège
511
Ace
portes
Führung
##egu
mexicana
Andes
1629
Álvaro
##iada
1526
presentes
##ript
Formel
Alors
Hooper
associations
interested
##zare
Hoffman
keyboards
##rill
Pretty
strategy
tombe
penalty
Jordi
##abe
437
Holocaust
Legion
Strong
##bei
stopped
##cole
##CD
senator
modified
assist
tools
tribe
Mexique
amis
resource
Additionally
1645
499
premios
priest
1634
##rante
444
Petr
monumento
westlichen
Augsburg
##vamente
Colegio
Haar
Waffen
phone
practices
1705
Libro
Jiménez
punct
##för
##usu
##eku
coalition
crossing
##lein
forming
gehen
Veronica
Visa
Zoo
Rapid
traditions
scholars
aquella
Claus
##hle
445
##bano
ROM
Debido
Handel
##urance
soil
##tler
anders
Gustave
Livre
depth
grant
Brésil
Gare
1726
WK
1676
Bosch
MV
Guadalupe
Languages
wet
novels
1111
##turm
Oficial
constitue
Calabria
nördlichen
Christi
Davidson
Screen
##hand
##aldo
438
seccion
mont
Rahman
##atore
Inseln
commerciale
genes
1622
animaux
cat
cited
sef
##anto
Suzanne
##kler
presents
universities
google
decisión
##anten
setzt
AJ
##atur
públicos
counties
Massa
Quebrada
victims
onze
scheme
515
Größe
crea
Noah
Drosophila
##sik
critica
revised
Botanical
Comunista
Rivers
frase
Brussels
intention
##mara
esprit
##ching
artículo
bildete
patria
größere
threat
##warte
consecuencia
Leigh
Bosnien
flows
Judy
##AN
##bud
column
Technik
Cal
Recordings
Complex
##lab
Cash
Jabal
##tsch
Diocese
Albany
jóvenes
##china
emploi
Knut
definitiva
kleinere
habitual
testi
Freddie
Marsh
coastal
1623
Samoa
Marko
Tunnel
##cko
##ception
Blind
441
1664
ownership
soccer
Ver
armi
Mia
sees
##itation
Belfast
banks
Gut
spoken
1612
découverte
Buddhist
Moskau
##kter
Clermont
poderes
dictionary
1656
##nibus
inzwischen
taxa
##richtung
reporter
##nosa
hubo
##aru
880
##eil
Assemblée
1086
Botswana
expedition
artística
divide
Toto
orange
kennen
Rothschild
acord
narrow
avance
io
resistencia
Calvin
##nul
fundación
##lton
Zoological
dual
Artur
##legung
hill
Lola
Dover
1638
##fassung
rectangular
##onu
##mens
Observatory
startete
Legacy
cup
Medi
##dka
##mium
todavía
##bak
frontière
Und
##HC
GO
##anna
##camente
Lonely
Spears
##graphique
organisations
minuti
speak
##uant
dernières
##nsen
tell
##mination
##tice
Doktor
##tista
Factor
##üt
Papers
vols
##sei
Zhou
##nana
chambre
##gla
slow
viaje
spirit
##ulaire
Industrie
##elet
Nero
Transactions
evi
Algérie
supports
Bismarck
##ificación
forests
##rok
##resa
presión
Detective
corazón
Nordosten
tomó
##gehend
avion
##thus
##case
Hyde
cold
Theorie
963
Randall
diamètre
##theater
Karin
replacement
##vide
colos
discussion
##eze
418
revision
NET
Guyana
Nissan
concrete
Step
bomb
##cée
##anne
formen
Reports
##ucci
##wes
##zicht
Idol
rollen
Mongolia
Galileo
##gong
inscription
gleich
japonais
##lita
Anglia
Sue
Lauren
1652
acquisition
paroisse
sogenannte
sélection
haft
Virtual
Pilot
##cup
ajo
##cot
##scu
inició
##nich
wäre
TSR
größeren
piste
##dell
485
##gonal
devint
puerto
Iranian
Mancha
##zogen
Santander
Reviews
Rodriguez
##gebäude
##tude
##fil
productions
##atura
Lucius
paix
##vins
##dada
##seits
fun
judicial
covering
forman
artistic
photos
##rish
Pirates
flota
peinture
revient
Carla
bene
broad
vertreten
ministère
jungen
##mation
Eu
incluyen
##fly
##skan
illustrations
Manche
stream
equipped
frecuencia
Suárez
Tomas
Catedral
1682
##sdorf
Hammond
plateau
Gutiérrez
Huang
##lki
##lais
##system
Anteil
Leningrad
Sm
vas
##urin
Bilder
##meer
jeweiligen
##eso
##dino
Pier
##usion
##ache
##scht
##mea
##hoe
Renato
Christianity
##bios
Until
bot
##litz
##chtung
streets
Kyoto
##anda
Ausstellung
darin
Jacobs
Quartet
Reagan
##tral
dienen
quedar
perd
Glacier
Ramírez
##chs
##yos
coro
608
palais
dada
playoffs
reprend
##IM
ici
Gore
Gould
Originally
##bian
##uste
regard
Cork
Concepción
Lakes
Siege
Ever
Aufstieg
Anniversary
Mathematical
1651
##ctions
Dawson
##uté
adults
cd
Alte
comunes
Revolución
##rido
Mauro
geben
langer
Amerikani
Org
##rton
métrage
Gia
##FC
frei
Mey
tocar
##cidas
##dder
Poems
estil
Dong
huge
evening
##leti
Edmonton
##ián
alter
##entos
tratado
##hora
##ógico
##gic
Conan
##bna
brick
coverage
Rally
452
##dian
tro
##sle
épreuve
Laufe
##lha
sant
##kad
##WA
Siemens
Criminal
##bien
##vem
Reform
Heiligen
devait
inches
diversity
mouth
Ariel
downtown
Knights
verfügt
##mona
conductor
Lindsay
sun
780
Mid
beautiful
##stoff
Jacqueline
##dau
Città
interpreta
binding
##itan
##shed
grow
Niels
##wig
namens
Hawk
Krieges
russischen
##gny
Gram
propriété
Esti
mesures
offering
Bavaria
Marso
##dida
##kot
Rennes
##wasser
##iciones
stayed
##chet
institute
Hispanic
Fabio
##puso
##basis
offiziell
österreichischen
criticized
sodass
##siden
##ndes
reprise
extreme
Hank
##weis
1350
Texte
Former
1493
dagegen
##tional
trabajar
gegeben
##avia
Steiner
vist
419
Syn
Adult
ready
processing
##ficato
Louvre
##amiento
Keep
defeating
éd
Rancho
1585
Johannesburg
acaba
##stor
heads
Gazette
##lación
alcanzar
##dero
décrit
Melissa
Schriften
##uve
##ît
1616
spiritual
##ME
Gods
##keiten
##ksa
Musiker
Gaza
Goodbye
##cules
raise
Piero
Going
catalana
Kuba
sacerdote
restaurants
##stru
1569
Mariana
##haft
##baren
Bert
##rns
Esteban
Indre
##cision
##mals
Satellite
dea
Wilde
claro
496
Nora
##inne
##lec
##bilité
##jord
Naples
deben
liberté
grown
salida
everything
viste
Nya
restes
maisons
essentiellement
##â
##scope
candidat
classified
Ortiz
BD
Israël
Łódź
Tiere
boundary
anda
fuga
##áil
Oberliga
Cliff
##bila
##úc
ober
##folia
Macht
Ruta
Fiji
Dolores
##lien
Opfer
##kek
##test
Niedersachsen
Vlaanderen
pré
##OR
Freund
Potsdam
##sies
trouver
Daten
Socialist
englischen
movements
childhood
waters
1627
potencial
squadron
matar
Byron
##eas
Brock
concerns
##gade
aragonés
powered
wahrscheinlich
learn
Engel
1385
Heath
##ené
##hnung
droga
##çant
jährlich
Südwesten
Martino
colonia
1662
relativa
Cherry
arrêté
sprint
Fabaceae
celebrated
Pio
Logo
Karla
atacar
trés
##srat
##rath
##wijk
##reta
Writing
complet
hún
##äst
Weltmeisterschaften
CM
Cela
starten
Rama
##ivamente
Spania
##mien
Habsburg
##tora
ganze
##tage
crash
resulta
tied
castell
Große
Roberta
Sergei
Sega
lagen
refer
Bayer
Vince
suivantes
575
McCarthy
CS
anything
reconnaissance
##nod
cursos
Nuestra
##uló
##cul
rin
Raoul
guard
Cine
##dini
##emente
Museums
add
Groß
processus
Surrey
obtener
##zd
Molly
447
##nyi
##bun
Sinne
Allied
Quelle
celebra
markets
##lore
Kurz
Adolfo
Gelände
Hist
##ída
familles
Matteo
##dul
communications
##fully
##real
Sébastien
protección
Chemie
Exploration
Ram
##½
840
früheren
heller
músico
1698
Anjou
Amateur
##inta
457
évi
##nzo
Castello
retirada
supporters
utilizando
Asturias
durée
Own
##lil
##smann
crée
Polizei
Southeast
##jka
Andorra
1695
italienischen
##izi
443
Disco
correspond
repose
##mad
außerhalb
RTL
##aí
vio
Kew
Competition
memorial
##chard
inglesa
Ob
mau
Those
##krieg
##llon
Slovakia
católica
agrícola
runner
##zard
entspricht
parent
1687
Alvarez
Rosenberg
caractère
##cimiento
ator
descriptions
##quel
Deutschlands
1668
poesía
changing
prende
Sacramento
benefit
##ety
Lines
Neumann
formally
apart
diploma
contient
Armée
sembra
##cin
504
##riz
Geld
navi
Neo
Legal
##rome
##heimer
##veld
##sol
européen
Frederic
##cés
##vita
1619
1659
laser
matière
terror
faith
1628
##logische
##CE
elite
##uld
Humboldt
compositeur
Shield
pesca
534
Orgel
lettre
côte
environnement
Rochester
Variety
produziert
##igten
Viva
##imu
1626
##wne
somewhat
##liko
Mir
clients
##eak
technologies
bedeutet
bekannten
múltiples
##bara
kunst
festivals
##mman
Doyle
geprägt
gerade
Californie
Further
izquierda
achieve
##änder
Fórmula
ausgetragen
venir
Aldo
temporary
##cid
arriva
meridionale
aspecto
1611
criticism
delu
weist
Meanwhile
##self
##ffa
participantes
dij
##ander
##igte
Duo
Jerome
##fach
##nymi
##atra
##odo
blanca
shell
Tampa
jeunesse
styles
398
1641
##bada
acciones
Travis
Wagen
Robbie
bassin
Peugeot
mati
colour
Troya
pose
##reis
chemistry
Satu
Weltkriegs
##rera
rele
Inde
LIVE
##press
alternate
##uang
433
gemäß
líneas
circuito
permettent
##uman
daughters
Agricultural
Nottingham
Guardia
categories
439
Byzantine
Schauspielerin
##dore
affairs
bella
Hitchcock
BS
weekend
Ismail
vend
##scheiden
aquellos
Enfin
Hector
eingestellt
##tón
clinical
##áin
mate
1686
perfect
##pica
Assim
##fluss
éducation
Boom
Stéphane
1636
terminus
Mina
Senat
Cave
##hum
Otros
worth
##rance
##nía
concepto
Oper
Nadu
könnte
##istik
##ulan
oposición
touchdown
##rle
proposal
recordings
Duque
##nando
Sherlock
Words
Hancock
individu
notre
privada
wine
nommée
##elu
zugleich
1669
Muslims
1678
##aging
Francesca
romanos
1604
1679
entraîneur
##lima
LC
Kazakhstan
Essa
Nordwesten
Omega
Emerson
industries
Thames
concern
journey
wit
Minneapolis
manufacturing
##ây
tone
Oaxaca
chacun
##utu
tais
influential
436
qualifying
Lys
cintura
iniciativa
##klasse
fiscal
succession
Chevalier
eingeführt
Mange
sic
FN
Vergleich
nobles
##amentos
Fisheries
1637
check
trotz
competición
hätte
##ié
Warsaw
##dische
##oses
betrieben
drummer
Nikola
wooden
Bulgarian
##mne
Untersuchungen
Clayton
Distribution
Sit
##ntas
##esc
##nyo
Allison
poems
Handbuch
Hu
representar
Teilen
1595
Navarro
antiguos
Brett
Lübeck
##wesen
filmed
Esther
aura
##rche
uniforme
1555
Gianni
directe
##ssin
élève
##ūs
disponibles
Engine
fishing
##rci
Algeria
recherches
##roni
estadio
Myers
genannten
##ガ
Cena
Eight
versiones
Siegfried
##gador
##uc
##ndar
Clemente
doce
jetzt
##zier
Ergebnis
Beirut
sieht
vallas
##vino
Aachen
##parte
Cyrus
Editions
aparición
1657
Wake
Murcia
flowers
representation
##chin
##geführt
Marija
UU
1606
cristiana
Boss
##erta
##phora
Interstate
1592
Pfarrkirche
opération
Kamen
Hasta
##çon
Beth
apareció
componente
lt
Antarktis
Seymour
digitale
Evening
##oire
3500
Sterling
Climate
##orf
##two
##vang
Eleanor
lutte
645
##més
violent
Rivière
friendly
santo
##ibe
stade
Such
##atte
527
Info
Limburg
safe
##traße
Justicia
Carson
##oun
Shan
finding
espacial
mill
##klas
arbeitet
Languedoc
Noble
##link
Passion
1653
Baku
Mess
norma
successivement
##forma
Andere
##chtig
##door
poca
Tate
##80
Prinz
Chiapas
Armando
lumière
##gab
estudiantes
haciendo
##stique
handed
evolución
batería
urte
##mania
namen
utiliser
##onis
Nikolaus
borough
Parade
1558
Transportation
unión
Lam
##emia
guitarrista
##oten
##tav
##evi
Libertadores
##oza
railroad
##kirchen
indoor
##mies
prisoners
##ely
alia
ähnlich
Tirol
Información
conocer
extrem
1559
métodos
##vée
Eugenio
strongly
1920s
Picasso
Che
Shop
##elig
pastor
inaugural
trama
Bundesstaat
Brighton
Nummer
##vención
Schon
Syrian
autonome
##hely
Südosten
Wappen
tardi
##llos
Kazimierz
FIA
Pain
quell
Zeppelin
##xide
Simmons
explained
resident
##mä
intersection
##ath
mots
Chaos
console
officielle
Silvia
##oca
##rac
Ferrara
Rodolfo
reputation
Bundesrepublik
##roa
##utti
Benson
##ále
usu
trabajó
Vampire
##ánu
454
Vinci
Russische
Jaya
architectural
##venir
salt
##itel
Pueblo
##gangen
##charts
pagar
449
Neustadt
bekannte
Fa
Prado
##ingi
Beaumont
castillo
horizontal
FIBA
infrastructure
Nan
colaboración
506
visitors
Aragon
Mitsubishi
FF
##dlo
1596
##igne
495
évolue
Rovers
509
1565
##onar
Pub
576
Schwester
##taje
determinar
##bruk
##cidos
##legen
easy
Cour
appearing
##cari
##qués
Fashion
Monsieur
##pped
Sonny
explica
suma
Phillip
dienst
semaine
Large
##resse
aspectos
##LA
##kole
philosophie
eleven
Verband
Gade
Compostela
ouvrages
Jaume
##ciendo
Spiegel
##version
##teca
eliminated
directors
##llis
yi
nata
Verlauf
IAU
Elliot
Grave
Kepler
Ioan
Meilleur
Plusieurs
##jeti
1694
strip
Tudor
Gonzalo
Saat
Sänger
occupe
##nert
Valentin
emergency
Ultra
propios
##wd
Twilight
870
corresponden
ritual
##ifica
##rave
Pastor
Apache
Paso
Kreuz
décision
sortir
Kada
Ferry
produjo
transformation
##liai
Sinclair
555
bird
##presa
565
Auschwitz
capacité
Batalla
instrumentos
parlament
##ajo
accounts
##elia
##sica
Energie
mia
Nico
fuente
##dron
Grandes
Sprint
1684
engagement
networks
Beginning
Lights
462
competitions
beschrieben
##mano
Niger
Salah
guerres
Linyphiidae
##iene
dite
AKB48
Eds
ordres
Reporter
threatened
Riccardo
cardinal
Marvin
492
gebildet
Volk
inner
1696
relevant
mountains
cima
occasions
griego
Punkten
printed
regiones
##arda
1646
##ört
##tono
##katu
##raq
##sgebiet
lists
Random
Nordrhein
défaite
Members
Yan
Believe
##siva
##lova
orbita
##wart
##forschung
##ikos
Corp
Alsace
UE
##ative
murs
Margarita
##ature
##handel
##ility
Rupert
texts
mounted
Resource
Blade
##gezogen
##itaria
violin
Kramer
434
1674
tient
Puy
immigrants
Âge
Stephanie
##zentrum
sponsored
##ldo
apparition
##sou
rounds
escudo
Comte
##gant
Vie
unidad
endete
distinction
medidas
ori
allein
Rao
Ángeles
verbreitet
Silence
latina
##gando
McGraw
##zil
duca
Isto
Shi
##kab
970
##SI
Somalia
composición
1568
552
surgery
thirty
493
Qing
gleichnamigen
soviétique
términos
479
Indies
entering
morale
##lasi
004
##zten
##hari
668
Calcio
instruction
Kang
unterstützt
adding
página
Lega
signature
##icz
1588
consider
Wendy
Loir
appeal
##ube
1624
siguió
Codex
input
Hurricane
##erden
##ifa
##éta
Catalina
##ntino
distingue
484
luna
accessed
pianist
Kuwait
Bath
Kirke
soft
experiences
solutions
##nist
##dun
Zensus
CR
Muñoz
external
fascia
##OP
##ymi
1566
##vido
encontrado
centers
##voi
Vidal
fear
CDP
happened
##eiden
Pride
physics
declined
Smart
Horror
ouvert
Rodrigues
mehrfach
1693
##cchio
502
LLC
Transit
reserva
Rest
colonies
patron
##leitung
Gaulle
Soundtrack
790
feed
##lent
##mbra
traces
##mons
Canon
XML
Dino
row
Tank
##mmt
Lance
Literatura
increasingly
Trier
posti
##hiro
##mala
municipalities
Ju
Sabah
signs
dependent
katholische
pressi
gone
##toma
##dito
1681
1663
1615
chinois
Bonnie
Linz
Pointe
Malgré
marathon
##tores
publisher
volver
##gewicht
##otic
provincias
jobs
##erre
otto
##tellung
Pretoria
##ança
temperatures
##dim
Running
autorité
lecture
junge
Rudolph
conversion
ballet
legenda
Southampton
extérieur
Sancti
Lagu
##čan
fair
Lublin
Fortune
arab
footballeur
studios
##rador
##visi
réalité
##zoa
##igny
##rdia
##yse
naturel
##edt
religieux
episodios
##enstein
arrest
ties
Crew
argentina
missile
730
##tiche
##dlich
API
contexto
ega
zählt
progressive
dominante
Clifford
bringen
Religious
507
##chine
casar
##nage
##glich
##night
accept
Dalton
materiales
##tliche
Chevrolet
Unlike
preserved
Fitzgerald
distinguished
Nomination
##hout
Ferrer
Sowjetunion
licence
neues
stan
tube
##pée
régi
Christus
Quatre
##anlage
##gnes
1613
comporte
##lassen
Unie
groß
genres
535
##gráfica
remplacé
siglos
augmentation
jede
marqués
führten
##sig
exists
dieci
1673
höchsten
registro
Krishna
Kit
##mang
##illon
bona
##nere
##festival
sessions
Dragons
Swan
cartes
##cale
##wirtschaft
Carr
Herzegovina
escritos
Situation
Democrat
halten
##toire
Grimm
libertad
Leistung
alfa
patent
losses
##arios
##iman
circonscription
treated
indépendance
##dicat
##cious
Romans
berufen
detrás
##tru
##13
annually
französischer
officiellement
##amerika
488
##raj
cesta
deputy
beach
##abad
##ıldı
calor
Use
tend
écoles
##tere
rapide
Pine
equivalente
##ières
periods
Oct
820
##gato
faisait
Doris
Warrior
##ered
##cir
DR
Recent
vente
##tric
##upe
Schulen
controversial
dare
##gende
elección
Groupe
detail
1602
Fabricius
Luz
solche
bestimmt
1671
critiques
##lti
##tse
suficiente
##hielt
CT
handel
CSI
##mática
##akt
##vodi
533
##koli
##rating
##kien
##alu
Pauline
avions
conduct
##vity
##hea
existed
Attorney
libres
règne
sagt
aviation
##ppo
send
lande
slave
Writers
annuelle
sommet
proteins
keyboard
sis
semaines
Longchamp
Andalucía
Sante
##idd
##arde
Advisory
##oce
Bol
weiß
telenovela
juste
lys
##entu
tenan
terras
Darkness
sangre
Corpus
##ldes
contacto
struck
##hul
Jury
Tracks
iniciar
mexicano
cosas
publica
Hastings
##dzi
Cyprus
##cán
mathematics
problème
comercio
Were
diplomat
##cello
vermeld
JP
##coe
##lmi
1547
Wissenschaft
##pris
personality
459
##quista
##point
538
Abbas
Atari
Goodman
Lt
latinos
Söhne
Experience
sample
interpretación
461
Ash
wichtigsten
atelier
batterie
##oba
gewinnen
Tolkien
##oste
##uff
ESO
cargos
completion
Parsons
Ulster
XP
bringing
shares
helping
appelle
Mile
Basse
Democracy
Ranger
motivos
Guns
thriller
wants
rasa
777
Aufgaben
trug
Gothic
Malik
surrounded
##iate
Frankfurter
##ression
##mund
peaked
Engineers
IAAF
##atori
vessels
618
dedicato
exact
##èse
##core
depending
Reinhard
##jil
##oar
römischen
dez
naturales
wol
Clyde
Imre
Copenhagen
steam
Orchester
##gul
##lman
polar
temporal
extensión
secure
##rige
PSOE
observation
replacing
##dier
perdió
##riti
##wers
estimates
variation
costume
operaciones
Kant
danger
reiste
##lati
Has
occasionally
releases
536
463
##ables
##vera
elk
740
Artillery
##hner
Suecia
Juana
##pite
representante
##eister
Zug
##ciar
Landwirtschaft
##dach
875
##sang
##ghter
Daniela
executed
491
filed
##cini
hingegen
particularmente
##ikt
##eaux
Viele
entièrement
símbolo
##uid
1601
##amine
##sna
Brady
Kode
principles
##18
sand
kura
wenigen
premi
Applied
knew
Epic
Dall
Blackburn
##wort
complexe
##rí
expérience
Producer
##ducción
Fahrzeuge
Ivo
1617
maritime
##rados
informations
727
Nilsson
paru
decidir
Celle
Pinto
Wolff
Mora
Wegen
ninguna
Greenwich
808
##ulat
baile
##gl
##ishi
##ife
674
##worfen
Attendance
scénario
Bajo
##itia
Boyd
Noir
Lebens
1571
Pic
##tut
hervor
##etter
##sende
##rren
champ
##rod
##ónica
Libre
arti
##rika
signifie
##plo
peul
##iani
retraite
enthalten
destination
Dec
motores
##kret
1607
1692
lief
PM
##zán
Chair
directa
Jill
##riques
associate
acoustic
##igi
##vani
ee
Practice
503
Shawn
Interesse
##bliche
##school
assume
sonido
##wice
Hara
##sses
Jaroslav
Dynasty
Literary
pilote
conduit
makeup
##malt
económico
ane
encontraba
Breslau
Lea
holl
Lil
##aken
masculino
Comes
doubles
##dert
##bola
1578
980
##reten
nic
Germans
Bücher
Petersen
551
Stevenson
##ldt
BE
##hut
counter
Astronomy
##adh
Benoît
Azur
fiesta
Kindern
moto
dargestellt
Norbert
vene
##jun
lanzamiento
prototype
##ugen
1631
##eiz
##ppet
Thüringen
##rque
##pino
Cycling
Sp
obtenu
##kna
1614
Ante
russisch
controversy
Movies
Carta
##SF
##gnet
##rc
##iken
doute
##kop
Waterloo
Huber
Internazionale
##liegen
Ehefrau
Protein
obwohl
Wanna
##ficat
croix
redes
Vaters
Univ
OEA
crecimiento
Neu
Kosmos
Chambre
Promotion
Francesc
standen
Canberra
Brooke
conception
Sousa
Isère
anger
formé
##ege
##stus
rejoindre
Kerry
boca
municipales
édifice
pasando
comunidades
hills
influences
joc
respective
573
Olav
casó
ge
gros
localiza
façade
producers
Themen
vector
2400
Ebene
Clemens
dirigir
Asien
fachada
Nadal
artillery
##nami
Maiden
Ortschaft
signing
Suiza
##árt
Durée
Alternate
##holt
bound
##eois
construido
nouvel
aplicación
versucht
univers
##esso
Aziz
organismo
Sunshine
##rock
Toutefois
##zky
fuego
regel
##rama
Niederlage
Henryk
animali
territories
##jährigen
Heather
##bilidade
Frühjahr
erweitert
##fini
Abitur
##lose
établissement
Reuters
477
ácido
deja
Aix
##tko
thousand
1582
Winchester
none
asfalt
músicos
##ativa
Barker
Zeiten
Luiz
Tato
nahmen
Monthly
echte
Fest
Lagos
trading
##lassung
##rā
corporate
Namibia
##zz
lycée
Nights
##zit
Gospel
##dhi
británica
##gro
##ogía
decline
##cede
objectif
##hak
culte
Miroslav
Presse
##wärts
Peking
##ried
parce
##rande
fondateur
tanks
1535
Howe
##opus
ONU
Vers
##kerk
photography
rivers
##hidae
##kam
Bund
Royce
tir
##apa
eighth
Wirtschaft
boats
Madre
##omis
##mete
effectively
860
visite
##bía
kultur
##rero
##xy
experiencia
1564
MGM
disputar
##rupt
Modena
##ografía
unge
Luanda
Athletics
verlassen
étudiants
##stedt
Iz
482
wheel
pies
hergestellt
Edo
Starr
fórmula
réserve
suelo
Marcello
traitement
1553
Sprachen
fortes
##vised
appointment
Marketing
maintenant
##ront
##izó
1608
Gedichte
rosso
belief
Probleme
Mato
##gou
Voz
alimentos
genau
##RI
Exhibition
illustrated
Olympique
débuts
Palau
710
Sarawak
##dab
construire
roots
Eddy
Formen
vere
##CA
Akademi
Gheorghe
drawing
Arctic
Maar
mo
##cento
nominiert
553
##iac
Marche
##ook
##adu
##kere
Medio
Vereins
Jungle
Catania
surviving
Portsmouth
harr
##RT
immediate
esos
journée
unusual
honour
##erted
Samantha
coles
Jesu
Rückkehr
Weltkrieges
pus
Turbo
##cite
remporté
Reno
creative
##corre
percentage
seri
dinero
##över
##yli
Umberto
contaba
##PS
Medalla
##gué
474
dör
##fico
##kir
cimetière
##aden
nehmen
Origin
candidatura
producir
966
##gió
##chan
últimas
Bahnstrecke
vessel
Moment
exemplaires
Druck
heure
##sters
Übersetzung
##ério
vivir
##lano
Cúc
Opus
originaire
Erzbischof
##lua
traducción
##fasst
simplement
select
ésta
poids
Ou
Runner
##cet
fonds
##nique
boa
gespielt
traduit
##dol
Lorena
Manning
##lost
##sels
buscar
1567
Theologie
Rostock
##män
Zentimeter
##iss
Matthews
Rhythm
##onale
breaking
478
Schuster
Präsidenten
1950er
HR
Hz
##rib
britische
468
niveles
Ke
##oes
##pida
Elsa
Ea
##ards
##tay
críticos
##oise
aufgelöst
##male
ave
##ネ
##ssus
Azul
1556
Certains
projets
##got
institución
involvement
OK
Tempo
##VA
##ously
absoluta
basket
##rió
Funk
qualification
Itt
524
U2
Cámara
Lightning
##ool
Bel
Française
##telle
Clinical
formant
championships
proprie
navire
uniquement
##ntza
##olare
Hahn
truth
1691
##gam
##rli
Foot
Laval
compose
gar
Geneva
defence
Athen
atteindre
Strike
##cte
##lap
sto
##verwaltung
AL
Edison
dispositif
Amazonas
##tröm
llama
##posiciones
##änge
##race
##ponente
Scala
Python
544
Quercus
##deo
522
experts
meetings
studying
Presley
Agua
##ués
##dolo
498
725
##uée
phrase
Kali
Knox
japonesa
élèves
##deko
##zyk
Any
##afrika
Indonesian
noire
utilisés
Critical
Kirchen
funeral
Rousseau
blocks
fruits
Óscar
1515
borders
obtain
Hampton
sultan
detailed
mains
##halle
##tili
Dag
denominación
Daniels
umbenannt
Messina
##rasi
##sure
cantor
##bija
Dato
Sonora
Architekten
##kg
Chandler
Informationen
Fifth
lay
##ènes
limits
Ergebnisse
register
Wan
ME
1453
Wife
1639
Brunei
##alter
##rese
##aban
suisse
##deutschen
bleibt
concerned
##tikan
##nout
excentricité
##dua
Please
denied
Derecho
Pilar
Bürger
1575
1584
##sgemeinschaft
Eusko
Lockheed
rapidly
##poda
Lodge
portugués
##licht
##21
respuesta
Walking
forum
Titanic
##cati
##fung
##tade
##tido
erscheint
landscape
Leur
successive
##lā
##ingt
Trent
##take
Kino
altas
##rava
##izm
conforme
##agu
Burkina
##uali
Aufbau
lasted
Harbour
1080
Instead
##rling
1542
Kung
Sacred
artículos
##lico
Shell
diu
##ném
1647
##šić
1599
Nossa
##gale
1524
socialiste
##nina
señor
##mez
commun
Cardinal
Mittelalter
continuación
interviews
express
armées
1001
##rtas
Shadows
##ugu
##esch
chanteur
corto
continuing
estatal
##world
moments
Estate
poche
varia
##laria
ports
taba
B1
##open
481
trouvent
colores
##hala
##wind
##guda
##teria
license
combats
Cage
Theme
Joaquim
nueve
Lugo
Pie
631
##nál
asteroides
##cura
##rr
Kleine
réalisation
llegando
buy
llegaron
Gregor
656
##bai
Talbot
Marty
apparently
##rett
débute
Fanny
líderes
##tee
##zados
finit
##bler
fábrica
Herb
##bound
höchste
Estrada
##stwie
whereas
##nisse
467
Euskadi
Internationalen
1488
conclusion
Centrale
count
##qvist
##xel
##lya
##áticas
Hale
Flag
turismo
##finals
Chung
galerie
Numéro
doesn
##zs
##llet
Planck
stella
beaux
##jit
##rolle
Holding
690
Britney
##plane
GDP
integrated
##phe
trainer
ende
reveals
funded
##worm
DA
Garde
Oman
Plate
##iale
##nho
meilleurs
root
véritable
1480
Mona
cheval
1552
##gados
##bilan
##onica
Britannia
influenza
chapel
##tys
Kern
Atlantis
Led
Atlantique
Neville
Siria
Zie
##mn
##nées
Destiny
Pokal
entrega
Demo
##nnes
632
##olle
Rap
Talent
##aling
portrayed
KB
##ufe
largement
socialista
Asamblea
Fun
públicas
Faso
Hawkins
##bito
abbé
Alphonse
Borussia
Powers
anch
Lester
greatly
##ensi
Klavier
rescue
##iben
Hat
##telling
##tritt
Echo
##inie
1545
geschlossen
##ojo
##diger
##quez
Ninja
##riss
organisme
finance
Wes
ref
##schiff
Amazing
rated
##gawa
anciennes
Fernsehen
IPA
##taria
1583
Belgrade
anglo
connaît
Capo
Honey
choose
##ético
pais
pression
DM
##swahl
Fakultät
channels
##tendo
commandement
3166
Always
tente
##enas
partners
decisions
Mt
Diario
605
Alfons
régulièrement
salud
##vind
Suche
Hole
alleged
interaction
escultura
graduating
vencedor
##vic
##utati
##mbar
Russo
dahin
##imit
##vich
##arbeit
intense
vital
altos
##mida
sh
erklärt
##70
Lords
Garrett
##hardt
notion
##lass
Rua
plana
bones
##sero
Mathieu
Warwick
facing
##kent
##lande
procedure
##parten
boss
##tona
normally
Stavanger
Maroc
versuchte
arbeiten
biology
employment
Carex
##mble
systèmes
##lz
##ify
##öse
##bris
legend
dié
##ühl
##bibliothek
Alianza
benefits
Ned
principle
Brandt
faveur
whilst
005
wer
ion
localité
magazines
584
notice
descendants
##anus
hundreds
comunale
championnats
sequel
Hamlet
revolution
1519
##wise
raya
Revision
Turnier
faces
longest
Bright
##kok
beschäftigt
grid
##sad
Katie
credits
fuentes
Snake
##aming
##visa
Erste
Trieste
mittels
Indie
procesos
Providence
victoires
Olaf
Florian
ato
##atas
##mäßig
seek
vecinos
Hôtel
Joanna
poles
Quito
##bilis
##ュ
vapor
##cott
Italiano
##tlich
socio
voiture
##part
Magdeburg
Liam
item
##uat
466
navires
carro
##nación
turning
Él
##presión
Gründen
ati
salas
themes
##leis
Pak
Legends
Ortes
Knowledge
newspapers
Europeo
publics
##mment
Günter
Herz
alemana
Tenerife
Lancashire
Titus
MacDonald
Suède
tail
1589
##kh
Moderne
jet
##almente
Allegro
830
Kwa
medals
Sales
apply
##visión
##itische
##rive
Saxon
##kong
489
machos
##pton
##tol
approval
##raphic
Brasile
mostrar
Almeida
avión
ride
clip
transportation
extent
1517
##dare
Usa
Arrow
absolute
Mensch
experiment
previsto
Chihuahua
locaux
##pla
Häuser
amongst
youngest
examen
corresponde
estudi
##rieb
Archiv
Mens
Mikhail
Yuri
grego
770
##haal
Já
pequeñas
everyone
##hnt
energi
ferrocarril
punts
competing
Payne
Teilnahme
Commodore
##ébe
Remember
##loge
NWA
##ujo
designado
necesario
arquitecto
widespread
zuerst
Beatrice
Licht
atoma
Corner
Mara
Sad
Distinguished
Teddy
creat
indique
1527
remake
Kantonen
##leges
pares
venture
politici
Orang
##piel
quo
Mall
wrestling
Meet
Var
Faust
documentaire
comunas
Mittel
1562
plat
lose
artístico
gegründeten
commencé
développé
genetic
##kens
Constantinople
Franca
useful
pinta
Hartmann
Länder
548
bai
Escape
##pai
visiting
Conway
refuse
Lab
Memoirs
interpretar
##cce
##lischen
Tin
##iting
Fat
Cornwall
biological
acted
Dina
Roussillon
voting
unités
##wertung
obispo
Breizh
erhielten
##iso
impose
ayudar
##olen
Weather
1677
Barton
##bli
infantry
##bno
##wed
Aeronautical
##vero
Lead
alcanzó
recommended
##fit
linken
##tris
italienne
##etten
surprise
Santi
##chal
##voz
##bem
perder
Ton
Luft
##fiée
attracted
Coca
locomotive
##zego
##cun
generated
struggle
Tous
Think
hicieron
ment
Schiffe
1573
Pl
##otus
Verder
Mouse
1541
holder
Seri
Mack
chute
Adobe
Pública
##ród
1534
Job
oberen
Eberhard
hacen
Croatian
Einheit
##clave
colony
##ロー
ung
innings
Sinn
##gten
Légion
collectivités
Millennium
##dele
##celli
enviar
hil
Bibliothek
explique
résultat
horses
ultime
ES
vainqueur
Dynamo
##dente
momentos
Neste
Samen
activist
##100
##mung
littéraire
Sans
Caterina
hôpital
constitué
531
Saunders
Winnipeg
arbres
##enin
Hussein
clara
Mu
##olia
Carvalho
##èche
Schwartz
Sieger
##ystem
Tarragona
weiteres
##cene
Conte
gelegenen
appare
entsprechend
Gear
Christians
##valla
Ese
drew
fundó
529
Mein
seres
##posé
polis
documental
uncle
##atik
##own
583
Forster
Ferro
Wettbewerb
rett
maladie
correct
operational
understand
Todo
moves
##amat
appartenant
locomotives
Vogel
layer
##cor
físico
##stände
541
erkennen
Romani
usual
##sville
Shore
colonne
##ication
##tures
roue
poète
##AF
Worlds
agencies
Crosby
##eler
Patterson
gram
##æ
bestimmten
décédé
conflit
sentence
téléspectateurs
##zón
indigenous
##úl
comunista
Fuller
moh
##ssel
mantener
##iado
##oom
##SS
##otu
Björn
##autor
méthode
relacionados
customers
amante
##vej
487
Pfarrer
##cycle
##diction
Planning
##aq
Ethiopia
seed
Doom
Fury
Technologies
plasma
dimension
##gden
##ikat
##utos
suis
##annen
francs
##versammlung
donated
NO
##his
607
log
Aberdeen
String
Unidas
Sami
Burn
##strado
Alien
ono
opportunities
642
ON
Wirkung
buen
seguido
##firma
producteur
1594
Lorsque
##dence
BR
Animals
Giles
810
dominated
##erti
cámara
##cena
Alison
##rise
##OC
##chtet
##lga
FIDE
##liv
Forma
##digung
1516
Principles
persa
Madagaskar
permettre
jüdischen
podemos
Sheriff
cinquième
cit
Vier
submarine
collective
escribir
décret
fighter
1563
giant
##adt
libera
cathédrale
jurisdiction
Platform
pianista
##öfe
##raft
Unix
Medizin
##izia
##nche
##west
quart
dee
déclare
##43
010
##eral
##quent
##rollen
Bulbophyllum
##opa
Cortes
##HF
propriétaire
Chico
517
##ements
Dunn
writes
Partner
begun
581
declaró
1597
aut
##uncia
##nki
##stin
Libanon
##aña
##dici
connaissance
##hay
confronti
Points
telles
suffering
Bernd
##cev
Reinhold
##ologische
Ríos
comédie
##nado
##phones
571
civiles
##garo
##tette
estableció
Pool
##kun
##rennen
peine
chim
régional
##lian
545
Baltic
Worth
Tears
Burning
msnm
1587
científico
Horace
Tratado
majeur
rápida
##anes
##län
Serena
therapy
##öping
BB
Maestro
##mest
##tali
Aufnahme
comment
Tien
puntu
controlar
##arat
scholar
tragen
Decreto
Español
pruebas
3º
nécessaire
verantwortlich
Kad
thème
##iciente
Volvo
##atet
demolished
Liechtenstein
##lona
##dres
minuto
viola
Rule
##atzen
boom
Patent
singular
##tli
jeg
injuries
##kee
charter
Silber
Achievement
Cristóbal
Britania
579
Avignon
favore
##étique
Gomes
entró
insurance
Guinness
Heer
Nou
##oos
1470
pret
disque
##fft
LG
appropriate
participé
eingerichtet
##ragen
quinze
Crash
##jum
1561
suspended
institut
Biographie
junction
Faber
##hman
zeigte
##mberg
parle
Archbishop
Revival
afterwards
advertising
moyens
competitive
produces
Silvio
##raal
##tuta
Cabinet
indígenas
Georgian
Rosen
inicia
483
patterns
wear
Ku
taxes
scientists
Sword
Bedford
Parte
707
##ahu
##inti
Fowler
Holz
representantes
Secondary
östlichen
##inou
##dene
Europäischen
businessman
Row
Sutton
Cyril
arbre
##agan
Trouble
Sutherland
scores
AV
Halifax
Mahmud
##zeichen
NT
##fiques
Flughafen
pár
lov
sida
Fate
representatives
##kend
Weiteren
supplies
MLB
frequent
termin
537
fête
Help
##ísticos
yeux
Königs
caractérisée
Beer
##lve
Regensburg
mantuvo
##tila
héros
Championnats
1576
spoke
exclusive
Programa
##zno
##häuser
##ídos
filosofía
##gav
Corse
eigentlich
copie
615
##vey
crowd
origins
neo
manier
##cology
##eben
Girona
##ratu
warm
##osto
propos
perdu
##lisen
Rapids
Puis
1510
Premios
Meurthe
fotografi
Uz
##ßt
grandfather
Did
##yas
Villages
Dodge
endemic
Jérôme
1574
assault
##ange
próxima
Soldier
##mut
##thes
Hélène
disk
references
##rode
##üter
Check
767
fleuve
##ING
expand
hält
##esto
##pir
Gabriele
Having
##chor
##hone
attributed
twin
##ndra
conservative
Martinez
vise
##lude
##mers
##rost
Priest
Frontier
proyectos
##laus
ebenda
traveled
##rées
Mateo
Sternhaufen
perdre
494
indicates
##ffy
Bélgica
canon
breed
Crambidae
aparecen
##ayo
582
modernen
##strada
ritmo
Io
##lager
543
estando
##ymo
##yak
compuesta
##lain
Sims
##inado
niño
Taipei
glas
##sola
Elm
Antonius
Flower
kr
distritos
sponsor
remainder
##auer
Zhu
##zati
Lorenz
suivants
602
affiliated
electrical
directo
##trag
##ieu
Ayuntamiento
vad
##gleich
sportive
##rella
excellent
Labrador
agricole
puerta
##atio
lanzó
Wrocław
##landa
##andre
##eses
589
bid
älteste
Bretaña
##álogo
Bergman
##ssé
essential
##bul
##tze
##vata
##lho
erected
corruption
Minsk
patrimoine
mobil
Colonial
##vci
lati
##iton
Manga
pantalla
animale
deaths
##volle
Protocol
532
serbe
562
Tarn
Lukas
##tenant
##elj
Irwin
Chaplin
##lated
Bayerischen
instituciones
notables
parliamentary
##tivas
##reau
etapas
##よ
wider
fortuna
polonais
soir
516
Dudley
Hands
##regierung
ocean
##ckte
##oft
Tribute
##xie
impacto
Twentieth
##fere
##wara
reconstruction
##europa
Penny
déroule
##oud
Gross
cruz
##stol
étranger
##orce
instal
523
##sheim
##relli
##elas
Tercera
Veröffentlichung
astronom
Candy
proteínas
##rb
calles
corsa
mainstream
variations
formule
Europas
Walther
Congrès
slalom
##nali
Acacia
kurze
substantial
Aux
##sius
Maxim
matrix
##rela
actos
Bears
Damon
Hektar
televisivo
##erungen
Physik
telle
##aram
Doc
##EN
parvient
emerged
##sl
Benedict
Mathias
##arn
féminin
##arin
Newfoundland
Maastricht
lord
Clare
Liber
gradually
behalf
##vski
partly
potente
Cho
##uita
retrieved
zählen
##cède
##eir
mechanism
Autoren
besaß
Libya
aumentar
563
hope
animated
Spike
Enzo
Extreme
eno
##ifolia
Find
Williamson
parcours
1586
Shortly
compra
Bin
ferme
nazi
imágenes
Oldenburg
vei
##vení
Municipio
Orte
672
Sanskrit
1543
##chie
Beitrag
Clan
Lehre
ruling
activa
##bold
collège
soldier
##agt
locals
Dominic
matters
##utes
mart
612
médecine
aquell
Extra
Gouverneur
aka
cuarta
910
vuelve
Pico
dedicado
Körper
unmittelbar
Engineer
##pose
Brüder
##mura
angeboten
1503
Fernsehfilm
steps
gallery
AR
##chsen
##liert
pitch
Kommission
##elige
abroad
chœur
latest
mener
Revenge
pars
##teten
##nima
##mentar
##60
Novel
##ifer
tritt
##hrer
##sler
##amental
rain
SmackDown
1577
Tobago
BP
Ferns
Summit
Amadeus
##pace
Poitou
Benth
Kosten
tribes
juntos
AN
publiées
écriture
condición
Tomasz
autorités
Meeting
##ssed
Maja
opérations
##oms
##tov
Ave
manque
fortement
gehalten
Caen
##tré
expresión
Malawi
##nete
éviter
##éo
Ente
producto
continuous
##LE
gull
##uert
##īs
##standen
BBS
Islas
automatisch
Evelyn
Frankie
Citroën
Kontakt
##pien
Shelley
##ulen
KK
concepts
Éric
dialogue
##della
##rty
Wat
privat
vierten
513
##roll
Bianca
salvo
##linger
##slav
Trotz
déli
1460
##ennes
##arta
##iosa
Aérea
tram
##cami
Standards
ocasión
patru
uniform
##idh
neither
wodurch
Croce
##ashi
Michal
##bezirk
D2
Zoology
anglaise
spending
patrimonio
Holden
##zeitig
Tunisia
635
##pler
##yah
Constantine
Dirección
responsables
hearing
usine
commanded
920
##pira
apparent
Luka
Commercial
##ctes
##ady
Oricon
Scout
##nummer
Quelques
##ammen
posted
##wain
Cabrera
##rion
albo
Eli
Norma
Pitt
Alam
##ddin
Partners
espectadores
mira
residing
unterschiedlichen
soient
C1
Soto
585
kategori
Cut
Cádiz
##gari
##chlich
Praxis
seeking
##mov
Ortega
##tent
Marburg
##logique
##nera
Elements
piezas
##geben
##sana
Gabriela
##rean
Amir
bestritt
##visor
keeping
##ôt
Math
##garten
Hamm
platforms
##DB
##lische
##oat
930
##ération
propres
außer
stets
514
##strat
volo
Oz
ferroviaria
identify
élevé
Rocha
viewed
##edia
##tesi
##ʻ
Bacon
vocalista
##bab
Armed
##quist
Avengers
revolución
accidente
acto
rebuilt
##ndas
abuse
nest
Numbers
Rocket
mismos
Stay
Petite
##flora
##aha
##schlag
revistas
shore
subfamily
vale
1591
dream
592
breit
Beaux
##blick
Ci
##siz
Guzmán
Disc
shift
Dangerous
ópera
Cunningham
intera
##kip
##gnant
WHO
Königsberg
##prende
encouraged
##scal
américains
gezeigt
##fta
##pect
Pamela
rá
membrana
Fenster
Twenty
##aks
actores
Chin
##dry
##ógica
##BS
Dub
adultos
##atti
span
Dear
huile
revenue
526
Bola
Event
werde
danse
##logen
Rolls
##schnitt
##xid
##éal
temples
Hogan
Rok
Orion
departure
remove
Wojciech
hole
##bado
reduction
##cepción
Pure
Lucio
##hips
542
##umo
Héctor
grenzt
Új
Th
fondation
Basin
Lev
Sao
halve
Duck
##cover
##64
Butterfly
1°
##cente
Hooker
##icum
hero
##aven
##leen
Ruisseau
Josefa
##oty
Dissertation
entweder
terminar
aktive
##orie
parlement
médecin
##ogische
assets
##zine
##sade
bár
visión
Castel
Bautista
Porte
rhythm
metropolitan
Nad
##gae
##sico
##tteri
Wir
informe
curta
##pling
vary
##ezi
561
anyone
##polo
depression
Montes
Juniors
##nada
##mental
casada
traduction
Sept
broadcasting
##isson
chamber
dorsal
Ship
##ilt
##works
Alpi
##ilm
tratar
Telefon
##chule
##sione
Facultad
movimientos
##halen
Tara
chevalier
##oya
Norwich
##rable
Gareth
Hulk
LED
##reus
parlamento
##kowe
diffusée
Educational
Fellowship
##hid
##iving
##axe
basé
offs
1593
Opéra
enfermedad
Finally
Divisione
XXIII
##lod
legs
Versuch
Macdonald
crítico
producido
Iași
Garland
Ski
Uttar
toured
Rode
worm
Leopoldo
##orium
römisch
##fik
relatives
Secrets
habitats
puente
Sonata
Spy
tribute
1581
glace
##erst
Fontana
##torial
Reality
##usement
fame
##urg
adelante
Calvados
##hian
Robot
##titude
##lce
##ologist
##web
Reilly
Natalia
belegt
1557
##voda
Galatasaray
##SL
Bock
##brir
duet
Salazar
##enland
dini
Andrej
Basket
Kathleen
##katzen
##mburg
##cripción
Regierungsbezirk
derrotar
organismos
PHP
technologie
mann
strategic
##erto
Cent
wings
Truman
##veri
Defensa
componentes
Journalist
Bone
caps
chasse
Australasian
##listen
##bom
##handlung
Compañía
Pia
governments
conocimiento
vieux
Marines
proveniente
delà
##eat
Direct
##reiben
##rif
##nahmen
enjoyed
006
muerto
geschrieben
Dell
##genes
1512
##udio
711
outer
colonna
compositions
##PA
603
Szene
gigante
Wedding
##ssement
Highland
escapar
832
skip
Gericht
##auta
puisque
Vosges
palace
événements
Cara
Xu
Plateau
Emile
raid
##mbina
1186
Elton
MR
Goa
mechanical
pm
##fels
##dane
grades
##lys
Maps
1490
Elemente
Nutzung
##rtes
##AR
étend
539
appartient
confine
verband
##agne
Nous
Pioneer
Simple
Ono
##itions
teniendo
519
KG
Housing
Zool
retail
Figuren
lesquels
##SR
acteurs
debajo
hojas
orientation
Richie
Osman
desire
Serien
Various
##erat
geschaffen
entrant
Aquila
##vado
Basa
##uke
##olin
##yada
##vā
Keys
picked
Tolosa
Signal
Title
predator
##idan
##pr
completar
##erra
613
atleta
históricos
besitzen
mani
Johor
Mondial
Hawks
##oux
##hau
##ET
##prese
clearly
suspension
órbita
permit
##rly
1554
##ʻi
Frente
Freddy
##pert
blieben
Watts
Qualifikation
charakter
Regionalliga
Chaque
permission
##wissenschaften
1529
##ulis
##dana
Nicht
Minute
679
Leistungen
bestimmte
titulado
avocat
##tene
Auflösung
##èvre
AND
Lettres
Spitze
##ntia
Voyager
##vió
recibir
##cats
projecte
1204
Standort
##uvo
angelegt
Rojas
personen
##yw
Mercy
688
locally
golden
Clément
##vost
Francesa
1523
studier
besondere
découvre
Gottlieb
Revolutionary
##dlichen
Clive
Tomo
rum
sir
Landtag
##ropa
546
##porta
##zlich
##ículo
Frey
667
voies
Poe
neutral
##tants
1126
Castell
Pen
schedule
##ngar
##ikal
Aber
fictional
##istent
##nikov
Franck
Cologne
##meni
##ogique
##mul
Todas
tou
contested
ranks
##onato
effets
characterized
567
amplia
Celui
capítulo
mond
ascenso
slot
##istique
Ursula
ITF
609
periódico
integrantes
codes
Romagna
zion
Observer
Choi
Mendes
Natura
sièges
voire
wedding
hadi
##dali
Reformation
SL
encima
##graben
brit
pati
##athlon
mitte
Bagdad
utilizados
superiores
traded
editions
##chio
handling
Eugenia
##ntemente
descent
Daddy
Ren
Delgado
montes
viewers
##iño
##lett
1579
procès
Tristan
1533
fonde
Cotton
##sigen
LOVE
Amiens
Wi
##how
Rabbi
cartas
##nchi
##kraft
Teilnehmer
mama
##liano
Brigitte
leaf
Pocket
collecte
Maurizio
fácil
grey
Ávila
##wies
beri
claiming
Portuguesa
retirar
##ference
hommage
pouvait
##ruh
scientifiques
##ländischen
##posición
497
##voll
Ribeiro
Prison
Lois
resp
##mol
bleu
##mian
Día
hur
cash
Boulogne
##ndum
Auswahl
##schloss
Bees
clock
situations
poemas
risque
Judas
##SSR
compare
Prefecture
mich
##ziano
operación
marco
##fero
##mper
##örp
##pulsion
verze
628
Henning
Medaille
##uco
USSR
Workers
##NI
##tió
organisé
##lena
##yoshi
análisis
3ª
##ically
##fabrik
##ニ
##RC
Aarhus
##hrlich
Linn
practical
devenue
Expo
##matan
Gomez
##enten
emperor
596
Christensen
obu
salto
Liszt
Zhao
Beziehungen
Charleston
Description
##sim
errichtete
705
##ION
##xic
Graves
Architekt
crown
displayed
papier
encuentro
##chid
Isidro
aimed
##oop
Miracle
##iformes
Aug
##ficaciones
##üren
explosion
Perez
Yusuf
intero
oppose
KC
Solid
concerning
##lme
##ísmo
restoration
##schutz
Sunda
Bester
Wanderers
Bains
Festa
##érée
Sv
charity
##mio
Emery
Siberia
##egos
Sturm
##ault
##ächsischen
provinciale
##dena
Tottenham
annum
installe
interpretó
nächste
tun
Brill
Petri
Trial
romain
##graphe
Hercules
Ready
options
übertragen
##umes
Babylon
corta
résistance
##eche
enzyme
##orem
##str
shopping
Antonia
científicos
Squad
Files
Père
##laste
douze
##uria
swimming
##gr
Bland
Erika
787
##vec
asociación
##ède
IK
tol
1528
implementation
Gestapo
##cionar
tron
UP
Dwight
uncredited
##vate
Bernardino
##ught
##zial
servant
##sif
bosques
Castelo
Gebiete
Adriano
##zei
Biller
##print
rápidamente
Grèce
Bohemia
##NB
Pohl
páginas
975
assisted
1420
Schubert
jedes
hl
raio
##gés
tool
##tium
Norris
##rnen
1150
1537
Königin
599
mara
tiro
##pena
exposed
increases
##ringer
cave
Señor
Swing
ST
##typ
Paus
Hilton
hardcore
##rnia
gelten
Tango
doctrine
Darren
Tode
Letras
Wieś
Adolphe
Autónoma
##MS
actuar
Kader
sentenced
Werken
legislative
Mika
Minden
##tya
margin
pé
Musica
publiée
##24
JA
carrier
juge
jedem
Imam
throne
Marte
mixing
Sent
757
Sessions
Akira
advice
integrada
##hane
recién
Flowers
##site
Archer
Chrysler
##uy
Cha
ouvre
simbol
##rire
586
##ellement
Deborah
suele
Président
fundar
regreso
1440
Kaunas
linie
trente
##vall
bleiben
membrane
##arne
547
Wyatt
##lady
##sfield
##xis
##quis
##thi
Suffolk
Fuji
possibility
americanos
mantiene
rast
##jeta
##kui
Pinus
##áv
Carrie
destacan
##tah
Sleep
##hil
Tunis
verlegt
hispanos
##érés
##nded
Souza
##qu
senador
##duje
##pping
presidencia
publicly
##messe
Batista
rotation
595
Iceland
##veni
Vázquez
Grafschaft
684
opponent
kulture
##lih
assurer
dessous
##iba
Kitty
##ising
##pec
Boat
ker
Hautes
##ividad
UCD
##nose
Holm
Öffentlichkeit
oficina
Senado
civilian
Pest
vertrat
reconocimiento
Phys
##lý
elektron
Egipto
república
##IF
569
Anwendung
Rocks
modernes
Grammar
teatral
##ónimo
##amp
##reda
10000
Tem
pouvant
consul
##gaard
cello
Feld
549
Caribe
##nati
researchers
Denise
instalaciones
Straßen
defending
enviado
Proto
Mojo
##öll
##gali
##hri
alus
##rap
##unas
professionals
tué
940
DNS
##nke
zunehmend
##barkeit
plates
température
Neptune
##ienda
Rodney
pinturas
##hong
estudiant
plena
aile
Asunción
tenta
701
massacre
AVN
Fusion
rising
641
bell
europeos
##hawks
##zustellen
##träger
##ziehen
orientalis
shoot
##chend
Okinawa
##iges
##xica
Durchmesser
Iglesias
Gotha
spille
##vasi
merger
flor
Rudy
##usen
##lii
conciertos
Disease
jardin
traverse
Sede
Naciones
Architektur
##éi
rode
##ñar
subsidiary
##kaz
##nah
printing
doua
youtube
österreichischer
Premiere
outstanding
reportedly
zweimal
Zambia
##bó
BWV
passion
##ppu
##vari
mesa
Lowe
Dora
Voices
involves
Égypte
Inspector
völlig
religiosos
besser
Alpen
624
Matti
##pier
partially
reacción
realizadas
toi
Senna
##tedra
##zahl
Katharina
nasce
##eath
##vim
GSM
##cutivo
Gaetano
Herausgeber
éditeur
asks
Desmond
##ckel
attitude
licensed
Dickinson
##thy
debía
##gement
M1
bear
##erar
675
##19
##ificio
Dogs
616
##kut
Pedersen
##welt
einfach
##ivar
##ticas
Figur
Roque
trials
##bewegung
tenido
Ardennes
andro
##vens
significance
##uter
Focus
fließt
##kreuz
1539
636
Beyoncé
convierte
##isha
consulté
Goya
Sergeant
daran
Cromwell
Dua
attorney
implica
Struktur
negativa
ganado
554
inclinaison
Zoran
minority
890
##èvement
##uaire
pictures
weapon
##toren
Claudius
##llia
potencia
Bernstein
fresh
alas
Landschaft
circumstances
belonging
##vieron
Scale
##toni
photographs
relocated
MK
organised
tenure
Cars
Fragen
671
Exposition
Task
happy
Clement
CONCACAF
Pack
Apertura
Gonzaga
mezcla
diseases
##gaben
attending
Heilige
Pamplona
ons
AMD
Stranger
celebrar
positiva
Albanian
tape
##code
Barney
##oq
Irlande
##fait
coda
##pecies
Michelangelo
##imus
plural
##tancia
Cuenca
acre
##loga
Dadurch
##usia
périhélie
##nimi
008
circle
Amour
##imas
##sons
ceased
électrique
Giulia
##fano
Haas
##grave
contenido
saxophone
Evidence
##biy
##duction
Madeira
##iis
Barrio
Nové
Selv
espera
rojo
Calcutta
framework
##shof
##länder
micro
trust
máquina
écrite
Dijon
présenté
##dering
benutzt
ovo
##plin
Monkey
Sunset
oz
##ished
##hod
##rinde
Idee
spaces
vivant
Skopje
Romain
Stellung
gute
runde
##gging
Rebel
##pland
estándar
##viser
##guna
Additional
Türkei
##duct
comedia
##jave
SFR
##gini
toun
Hongrie
Bulls
deployed
gestione
##glie
Stephens
unan
Belo
establecer
Deal
fee
##tration
Vatican
limites
scènes
##mei
##holder
Estland
touring
universitaire
Sounds
Förderung
1940s
##istisch
558
##uré
closer
universidad
Breaking
Regionen
##üche
Zimmer
Gabon
artillerie
##orme
##üs
pareja
Pauli
1532
Dracula
##gido
Enemy
Locke
Hampson
drivers
1538
universe
##sp
Habana
laisse
accurate
apartment
593
Pavia
isolated
traf
##tae
Tagen
##messo
##rité
##ôle
Ordnung
clave
##tario
polnischen
dinastía
##シ
ganzen
significado
Role
implemented
effectués
preußischen
accesso
Machado
Lyons
##lemen
572
kana
Blog
##brik
Mikael
##ranno
##×
alemanes
Nowa
##émica
unterhalb
lendemain
Must
Archaeology
Atenas
aufgestellt
lando
campi
##eien
settlers
autónoma
##DP
Laurie
##ylum
##hado
##gura
spricht
##ntal
Lex
simplemente
roda
Schumann
gauge
##kopf
falling
Freiheit
Dion
Liberation
Arch
##pang
mena
##uza
Streets
consistent
Ara
##ald
##mosi
competencia
559
Salomon
Sancho
erg
##quita
combustible
Hubble
nationalen
Künste
##érie
Sage
colleges
##tín
ITV
suburb
Representative
dessin
pensar
Chronicles
sauf
invasión
Divine
##neri
Therefore
erstreckt
##zane
árboles
Muller
Zukunft
Vaughan
salió
Rechte
Dias
limita
568
##nec
beauty
biens
2n
comerciales
##GC
brillante
dum
merchant
Linné
ninth
profil
cree
lois
unir
556
1073
Lunar
Daughter
Royale
##ogischen
fè
Visconti
Référence
jump
householder
##fina
Ján
##rierte
perda
Sigmund
barco
##type
trend
##mientos
Bonus
Casablanca
salir
##ept
komplett
Bewohner
Nichols
touch
Peggy
Electronics
##otes
Bergamo
1260
##brook
Prozess
##dn
##gles
614
Cartoon
Erfurt
Murat
veri
##cony
Sabine
magnetic
tension
sheet
immigration
##TM
Abbott
##ieux
Dänemark
fitted
##cade
dispositivo
Braga
Rocco
recovered
freshwater
##bergen
Maple
##rter
Requiem
Ambassador
maximale
##nismo
Donovan
NN
désigne
Randolph
ingénieur
##novi
organise
##tang
Finals
Daisy
##tead
lava
montaña
##ländische
marks
##urde
1522
meridional
listen
Belarus
vivre
suroeste
Ingles
irregular
Coronel
bind
TNA
Poitiers
##brane
##ffin
##ñó
Magazin
##dic
individus
##eling
Verhältnis
##mil
economics
##lm
bond
##gericht
Egli
Zeichen
Syracuse
##haa
##pita
##rants
Vito
india
##lacht
Allgemeine
milles
árbol
TCP
infection
residiendo
Atomic
Colón
##fund
##øn
Puente
missed
qualify
taller
833
##rken
santa
Networks
##xon
Historiker
establishing
Sc
continuó
##cili
##pice
##rnas
Quarterly
sufficient
pit
785
##ols
990
##slagen
##ezh
##esos
##ldu
Chennai
##vó
ancho
##ritis
##liegenden
cf
kick
##fono
peoples
##lsk
cores
régimen
Lager
Fuerza
##bba
##cades
##dei
Jaguar
OP
hiri
monarca
##chrift
Nº
puso
banco
Bloom
##iehen
Oviedo
Melody
spectacle
uri
Otra
##vili
##lao
fragments
disorder
duración
verfasste
##jad
##uell
##ggen
Witch
discussed
##stis
bourg
Syst
ranging
sounds
##mirante
Branco
626
Deutsches
hogar
timber
voters
observar
Barack
fortune
##yme
simili
dividida
##hando
##tales
posibilidad
Studenten
Invasion
regi
##enu
##uzi
somme
pis
Russisch
reden
deb
##sgericht
##ames
##änen
##poste
avenue
Presidential
unincorporated
muro
Worcester
##brand
eldest
Mira
loser
##etro
Steam
##lst
##américa
Cable
habla
##AD
honorary
DD
essais
farmers
spp
##macht
functional
Eindhoven
Tommaso
##politik
basado
zugeordnet
##éria
Bit
torn
##rnes
##veg
1180
repair
##shaw
comprehensive
listas
1551
nat
699
Chiang
Städten
würden
NASCAR
##phorus
Duc
Hepburn
casado
##familien
Kamerun
delivery
assassinat
nahezu
1549
655
AF
Nietzsche
Té
##rab
Sung
révolution
flights
##metro
Kongress
Haji
##ioso
##rechte
Há
Aude
Euphorbia
suitable
veteran
##TC
##bele
maschi
survive
ens
Sox
Kerr
##leur
Driver
##halte
lowest
rares
Shepherd
indie
intentar
##gien
relativement
Naruto
Photo
Opel
igualmente
Boyle
##fus
Wallis
pairs
Har
##iane
Definition
introduce
##pital
drafted
Oder
ep
presentan
interpretation
##meno
ena
erhält
favorite
Matrix
Extended
primit
exclusively
permitió
ratings
bezeichnete
##scription
##hot
Negri
cuenca
##gum
arrêt
remote
Dahl
Herstellung
pacientes
##gui
Excellence
##rny
587
hechos
##aly
Gama
géneros
NC
Populations
aéroport
Andrade
Vereinigung
Velvet
Cure
##pl
exposición
asiáticos
dono
##OH
Comunidad
Experiment
##sible
2D
debt
palacio
##bble
australis
límite
Zurich
##cure
##ilan
belonged
Metropolitana
Belt
usados
magic
clean
Ravenna
parco
reparació
Besuch
965
Latvia
Sama
Ulm
##hauses
Salisbury
Enciclopedia
##pent
##pf
Busch
Selby
statistical
electricity
néanmoins
settlements
Merit
constituent
ecc
Currently
##tiny
terrestres
##culata
1513
##culo
##blich
gap
Danzig
Rasmussen
interpretada
sor
##pista
##phere
diocèse
##roda
Salle
canons
##mettre
Mort
Rada
Tesla
715
romane
guilty
aim
##nno
##ddy
Arm
##nee
Philosophical
mittlerweile
mura
travailler
##wit
Liz
ABS
Tokugawa
inferiores
##bauen
Protestant
ofrece
récord
caída
spatial
##ház
##zena
1501
soa
##siert
##ricos
##tait
Confederate
monastery
952
Rot
Palestinian
exercise
Juárez
##natural
wrong
##tual
##úr
wollen
##bten
Villiers
tele
lie
liaison
Bourg
634
Billie
Gerd
Venedig
wearing
617
criar
array
Debüt
bandes
Surface
elegans
portada
##onic
Laws
judges
modèles
ramo
##bers
Montage
Biodiversity
hori
changement
organic
##pine
connecting
verkaufte
##tande
##enko
Tempel
instrumento
metodo
##yler
MLS
APG
slaves
##elar
familiares
withdrew
geld
marche
##vaja
aw
##chon
Selección
Gloucester
tó
##óm
##vanie
conventional
decides
##gium
Hispania
Nolan
Dessa
torres
edib
necesidad
611
##mah
C2
##xan
##vaux
Democrats
Astragalus
Youtube
Amelia
Führer
Mixed
thinking
besoin
##tierte
##viti
##ingly
Throughout
Flynn
Emergency
prac
precisamente
tabla
##rema
Nicholson
vik
ef
bag
Brent
Kashmir
##orten
Honolulu
##eville
##ïa
treaty
##unde
Zusammen
##bben
##oper
##eyn
Experimental
Friedman
FDP
aviones
blanche
##kera
commented
Abs
vorwiegend
doors
##ficados
##phis
birthday
##lke
profession
Della
Entscheidung
conflicto
Booth
nomen
pone
Inner
##panie
quarterback
Mighty
suelen
##mó
Garibaldi
experiments
kb
crossed
##jni
Audrey
humaine
##zunehmen
Pt
annuellement
Naomi
Shu
arrangements
oncle
autoridad
Junioren
Perugia
973
Nordic
cylinder
##iñ
Cumberland
##éis
Walton
habría
1504
577
Togo
##rischen
Ala
Sidi
##zus
radiation
Trento
illness
Raj
591
factores
definir
##dela
##eding
geb
grabación
desert
##sches
comparison
##oden
cooperation
effectue
sequences
##lights
öffentliche
viens
portraits
trail
Goldberg
abandon
629
Wish
initiated
Lakers
##stem
NA
comida
##arias
##eves
##ánico
fled
##ators
Sailor
##nque
Parteien
##tuan
##irat
musulmans
seitdem
Autobahn
##ruption
##ject
Qua
##aye
##itee
satélite
riding
communiste
##nischer
1505
622
printemps
##ranta
manufactured
Salerno
##rust
RI
focuses
##hörigen
reaches
1546
##inia
conocidos
##hde
##jur
talks
switch
606
Harriet
Metallica
##uia
Elbe
Vogue
Ah
rebel
regresó
soldat
Unicode
tratamiento
621
veu
Futures
Initially
##bral
oferta
##kunst
Halloween
corriente
variedad
regulations
##ār
objekt
verstarb
économiques
##čić
participer
Gap
##toja
##baret
##misch
écliptique
##icis
Bahrain
Cervantes
exposure
fala
Chamberlain
##imate
##kawa
precisa
Isa
##bord
Orten
Crane
fent
##inet
##rala
cemetery
intención
Steele
dialect
fases
##wicklung
1494
Dann
téléfilm
1380
Lover
bars
stoff
lados
republika
##tist
kraft
Collège
714
Rescue
##urne
Arnaud
##egi
##roi
##acia
Gogh
dirigé
Constance
##mouth
suggest
Albion
juega
##dico
gesehen
riche
##pard
##kling
hyd
volumen
Mello
##gone
députés
RT
##rley
##gula
##ect
##ües
Freiherr
##ど
9000
##matik
##ndu
##quiry
wesentlich
gestión
Bellas
believes
peer
##building
Smile
Kazan
664
ouverte
Ronaldo
ej
Romanized
Weil
##racht
627
Schwerin
evidente
unten
ages
bassist
manufacturer
##lv
Everybody
Esse
##adora
elevada
ganador
utilisant
vet
1430
Crow
##weiler
cattle
earning
Eng
Quantum
rector
Yamaha
allá
Rihanna
ámbito
intensa
targets
##eds
Jésus
##yba
territoriale
Amos
unteren
##fix
##issen
pursue
Dai
##penses
repeated
boundaries
japonaise
Schulz
##gik
Mauritius
##pene
Nickelodeon
seeing
##leta
Author
seem
baloncesto
Agostino
Properties
##anic
prisión
alive
##rgus
haya
##sek
stroke
tida
##ingham
##arian
griechischen
623
answer
Nino
zi
Border
##tosa
Beschreibung
Adrien
Pflanzen
##lons
##ovich
Buda
Prairie
Jörg
Achille
Gavin
Killing
Gibbs
##ñón
Lao
roller
scholarship
BMG
detective
housed
Resident
##ipe
Byrne
Aguilar
Hiroshima
Aten
kHz
Dexter
evil
##life
Ludovico
jugu
##sula
##naje
##rater
ari
geplant
801
##strecke
Nippon
1370
##omes
Dichter
##lido
##culture
dangerous
secured
##here
##oof
continuo
##pils
Yorker
Alicante
intermédiaires
##asia
Existen
##vena
eventual
hunting
##dba
566
Cô
##gert
Gian
Thought
propósito
##losa
##dista
mac
bone
danza
ficción
Hora
##ndor
Daher
narrative
Diccionario
##ncu
Bridges
##nista
endroit
porter
##KO
##teile
Norwegen
minimal
Wahlkreis
##rónica
##fal
proches
raisons
Morocco
##lif
domaines
entschied
##lci
morti
poblaciones
##ennial
Diesel
Memories
##äe
Farmer
##veli
étoiles
Soleil
##logischen
AAA
574
spielten
##cture
Iván
promedio
romantic
Lydia
##biendo
##mosa
älteren
Lithuania
##jean
Gud
##digen
Tas
creu
##aille
einschließlich
##nç
Jalisco
studenti
victimes
##pán
Graduate
barcos
##putat
closing
##stat
rai
##cionado
##ktur
Einar
Adriana
Restaurant
starken
Calle
Sheridan
Lies
##ecko
UC
surfaces
Looking
pilots
japonés
##ieur
##cq
##gegangen
jaune
individuos
Mat
automatic
escritores
placa
topics
prices
##tend
Platinum
619
##wak
violencia
##UP
##rdu
generación
768
##dacht
Elder
costo
fabrication
sufrió
Greco
escultor
##önen
Kan
588
escritura
sharing
##acha
Albin
Georgetown
gegründete
rebels
##omas
Millimeter
Rwanda
##nesa
##ckie
##rista
##nated
1485
##itzen
##rière
Negra
Linden
##posant
##nota
Küste
Alben
Profesor
##ferencia
Gong
battalion
##jaran
Cove
Züge
1544
Diary
envers
Wednesday
##quette
Neubau
Rim
##drom
ongoing
demonstrated
Harlem
Simón
##blica
attraction
battery
886
Independencia
##erno
ursprünglichen
Jennings
mouvements
##hop
africana
salvar
secondes
shi
unsuccessful
##bij
##dru
Variante
tea
resti
Benfica
topic
1548
erklärte
Supplement
configuration
##vidad
##tée
bí
significativa
Paola
athletes
belang
1514
##walt
coaching
Konzept
##emma
##szt
828
Holdings
canta
##cated
speaker
Bände
herri
##ästi
Volkszählung
polen
##nnie
zuständig
Gonna
Alps
Odd
docteur
publiés
cercle
Vicenza
administratif
##lave
faits
hidden
1495
bred
##fas
##ári
1240
Arzt
Iraqi
isole
##etzen
copias
Shot
##tla
##raya
ford
avis
Burundi
Buffy
Gerry
promover
Rover
Angriff
professionnelle
synonym
##rere
poursuit
Brugge
##kl
##weite
objetivos
##ision
##uana
ausgestattet
Martini
commande
AHL
CBC
Cardinals
zweiter
rarely
mentor
Breda
Lauf
Goldman
curs
##cah
Photographie
Manor
licht
wissenschaftlichen
Merlin
##syn
Galería
nul
##nama
##áni
Ras
Tbilisi
devoted
industrielle
systematic
vuelo
Quick
partidas
##tress
mina
ONE
Tabelle
Tonnen
Loser
Everton
Untersuchung
regulation
Phone
Dentro
Haydn
##iaux
Jakub
Kamera
Southwest
instituto
##dov
Move
blu
Methodist
darf
##fektur
Birthday
cellule
##tega
##nap
WCW
UCLA
identical
##iné
Ventura
Montserrat
pilotos
assai
bachelor
1475
promoting
##achment
Clair
aumenta
responded
recipient
conserve
##pok
Weekend
##uet
##fes
diversa
Stimme
Casas
expensive
tiers
competir
##buk
##telse
##ument
##gründer
beating
PBS
704
##モ
##iare
gemeinsamen
respektive
##acher
Progressive
ming
##schte
Einheiten
flotta
Política
##ertu
Ericsson
Identity
##HA
kol
chemins
demasiado
##mide
Allí
Ausland
##quity
Kari
colori
##mpia
Écosse
Korps
##ême
IEC
afl
Münchner
##oco
helps
Alves
costumes
erinnert
Coventry
stelle
indicar
Costello
Individual
auparavant
speakers
##nary
segments
578
Zheng
handle
Košice
cult
##dessen
1506
traditionally
Monk
##rence
fortaleza
sociétés
Resolution
5°
ml
Electoral
oriented
Beziehung
##rgie
cameo
1531
##lj
Srpska
Fuß
préfecture
aluminium
##curso
exclusivamente
##じ
##tras
1498
##inischen
communal
divorce
olympique
557
##sgruppe
trouble
##enos
##ilia
especiales
Abe
oiseaux
Rookie
fifteen
1471
Moser
Nathaniel
maximal
##zani
##ongen
##rven
UV
##ission
Mala
Geschichten
reales
##lidad
Sina
##jekt
##hmen
tecnología
Klosters
Drehbuch
Resort
baute
Hermes
Kaufmann
Mathematik
enters
Roca
Furthermore
##steries
Felice
##zli
sailed
##rungen
Gegner
Dél
Foto
##chel
dicht
Tasmania
##esca
Philharmonic
connect
spiders
übersetzt
##rones
##atta
##istente
##ológico
Coimbra
Eisenbahn
##grenze
##neo
##yeron
construyó
##cón
Khu
##ign
##kul
provoca
1230
propuesta
##izo
motivi
##unden
columna
Bezug
Daniele
späten
Nordamerika
##jaya
712
Magna
gracilis
futura
##ierungen
Bean
latitude
navigation
##llement
Aves
Biblia
load
##riga
scenario
Fuente
OVA
venda
##tende
internationally
Marshal
Mitgliedern
eggs
##tens
Raphael
chanteuse
1340
##ND
009
austriaco
Edad
ova
754
Devils
Tea
liquid
affluent
FAO
submitted
Schrift
##rug
Owens
modernos
surveillance
##arak
Gdańsk
##luse
##dón
##ndia
cantons
existentes
##brücke
caza
TO
rally
analog
datant
Catalana
atac
banned
##zle
centrocampista
Standing
Vickers
##tinción
##lares
717
Carrera
Barber
cantó
nua
ressources
##DH
Humphrey
cales
633
##icate
##mics
adoption
992
comprises
trailer
noise
Corpo
propias
lenguas
Brendan
Fernand
costas
##eration
Directors
connections
cierta
leer
##träge
japanischen
Hartford
##trum
modes
mó
intent
##rond
verdade
##nthe
954
ie
Odessa
##zeg
Prussia
Tata
versehen
##tais
Ministre
##GE
übrigen
liter
##cimo
##DI
opéra
##sü
##iación
Strategic
Aufnahmen
restricted
fuertes
branche
##geon
##gati
fl
##pura
##iony
##paro
Bye
597
Cagliari
situ
##chó
Felder
GR
813
danes
##nels
clothing
unterschiedliche
##oel
sci
Translation
organizaciones
substitute
beau
##ground
útil
##pson
##nné
##vertrag
##cultura
GHz
Sheikh
computers
##nted
##trainer
Dakar
##piro
##vac
##jut
##schuss
urkundlich
rocks
1050
expedición
terremoto
chevaux
predecessor
661
Overall
Ethan
##NL
##druck
##kula
##eos
Mol
män
sigui
Sei
653
truck
Plains
##manes
ISS
##nny
##staat
Barnard
##bide
privé
Alten
hir
Altar
##gee
##rebro
endémique
messages
##lucht
concerne
Kölner
landed
987
637
module
##staa
1502
eligible
##kana
flotte
1483
certaine
1511
685
Schiller
derrotado
thereafter
Burger
Djebel
Mines
Breton
vem
kurzen
Augen
##nitz
##ruda
Sabbath
perspectiva
échange
1006
hätten
##oci
Burt
Eclipse
quota
estrenada
Fuchs
638
ticket
rice
Herkunft
atmosphere
spätere
Doo
columns
adaptación
completing
1220
nag
598
Waiting
##lógico
Gdy
##sens
Vietnamese
##izes
diocese
provisional
verschiedener
samples
##phin
miniserie
##tante
##piti
ner
Angus
starter
##former
RD
Chancellor
##ghi
unlike
PGA
rifle
Belize
secretario
Diaz
##üler
causar
Bianchi
Pot
##ctar
ii
Liang
##sans
Roten
##ply
looks
Cruise
Duty
##bik
Aku
waste
femenina
Liberia
Males
rurale
##bate
##issement
hinzu
Eliot
Gallo
saved
##tue
coins
Gegenwart
représentation
Angers
variants
étudie
##mbi
##cans
Kot
depende
trasladó
vocalist
export
fini
##veno
pin
bun
literally
Cristiano
Palmas
##eye
Moscú
scientist
manage
raising
dimensional
##dess
##erir
Bistum
Martí
##tzer
1415
##mede
sureste
Tirana
Spartak
Zustand
organizado
##nisk
marry
Dario
sodan
##periode
755
Buchanan
comptes
lege
Galles
Americas
perdido
##küste
ras
muscle
Basil
halt
teils
##cephalus
##lón
##ttel
Ale
##icamente
recognised
Hoy
Clements
Stakes
Erfolge
Macau
estudió
##meisterschaft
##gía
angegeben
dismissed
walking
925
guitars
preparation
##tons
overseas
1508
writings
Larsson
buses
##tma
Monsters
culturales
jp
secundaria
##richter
pes
##érique
Nació
##phi
1371
##osis
complexes
##ög
643
##evan
Dmitri
muertos
Gesang
##cock
##terne
massif
##aper
respectivement
élément
##äis
##ruf
Birth
907
##dr
Turismo
receives
##nur
Breite
##arbeiten
Tome
Cannon
Vo
einzigen
##jón
Gironde
##gri
vender
##gún
##éon
Alois
impression
##züge
Garten
supposed
##dischen
Elmer
Hendrix
Episcopal
##ruce
Toy
##mda
vehículos
##aster
Famous
Saul
##iral
Morgen
compound
conduce
umfasste
Roots
Wilkinson
##rui
##rné
##haya
##ncial
##ilus
pobreza
##bata
promoviert
différence
##isu
##itude
Cortés
gagne
Darling
objective
quer
RPG
dirigente
##dman
##fälle
1330
Tanaka
recensements
##yton
besetzt
##dite
##hnte
posar
##frage
Webber
Automatic
Volga
abgeschlossen
parler
Mauricio
##roga
accent
elektrische
realizados
residencia
##NP
Bones
monastère
Yokohama
Dioecesis
matériel
##raca
psychology
Gales
sisters
##passing
##ntó
Hungría
##boro
##burger
##ncià
Gamma
Kopenhagen
##äger
Rundfunk
##lberg
BCE
contar
##sier
Televisión
TT
requested
Netflix
##vane
erhoben
##EP
##mated
Vallée
wealthy
##áns
bibliothèque
Bremer
Heft
Wine
C3
Besetzung
##pierre
Rutherford
Uncle
escenario
CB
destroy
##fern
##leutnant
Cité
##culus
Leuven
teach
Ebert
divisa
looked
Livingston
conform
Maharashtra
begannen
##renz
Bassi
##ovine
fluid
##finder
Sammy
réaliser
##dós
Could
Zee
Eliza
Xi
##dz
##mid
Amber
Havre
situa
Fortuna
Jets
blind
Elisa
controls
##sea
voiced
Merrill
##feri
originales
2600
candidats
simbolo
thick
##hlt
2°
Abgeordneter
Oracle
Orne
Estatu
facile
Universitäten
Vieux
flash
Geoff
Hongkong
Lehen
##uchen
tanda
##arden
##érant
intereses
594
trace
enfance
Melanie
faite
officiers
Cowboys
leit
##roffen
##stiques
emotional
nacimiento
Eritrea
Lamb
DFB
tourism
unless
##cona
Dillon
##lion
##rua
cierto
Bericht
ward
##neau
wadi
##ports
defend
nau
eléctrica
comenzaron
Yvonne
Radical
rester
##plar
deck
##mella
##áci
##ctural
979
Laurel
Ky
hang
##flies
reformas
##tase
##nser
##clut
##ologischen
Mirage
moon
grandson
##wach
nationales
##iá
##vater
Frankenstein
##derd
marins
Bronx
Durango
cont
##most
Honorary
##isés
dramatic
Everett
Ol
##brechen
##tala
presentación
##cension
Erica
Miriam
##jeda
outdoor
élite
##ilidad
élus
Mackenzie
celular
##nario
promoción
Turku
##avio
schied
Saxe
sigla
Element
Gala
imperio
Vichy
drift
##sprache
bosque
elsewhere
##theless
Escocia
##perk
originated
##prime
##chner
##ági
Sunderland
##rü
Juifs
preferred
measured
plastic
gall
##enna
##ipa
##korps
Zunächst
wissenschaftliche
##minato
Reginald
##nari
sectores
##arar
Virus
Quincy
##india
amino
##bungen
verbrachte
##tve
893
duro
##market
quedando
estrellas
##celle
dirigió
originaria
vencer
Península
Goch
règles
Eredivisie
##schaften
##toon
##oth
estilos
nasa
Bernie
Districts
hence
challenges
comics
##esco
##ïque
Juin
##phen
Horizon
1410
Forrest
sugar
##enario
grows
Gutenberg
fondos
Kairo
famosos
reserves
##gués
installations
propiedades
##taba
extensively
##バ
##gede
Dundee
##ogu
Headquarters
demeure
transports
docente
Cynthia
ältesten
Stirling
Gleichzeitig
tumor
Advance
portugueses
Abt
activo
##tock
##ïde
##heer
Gaius
Sendung
Quality
chefs
ruisseau
Wise
transit
##hawk
##felt
##klub
##TO
##cala
cuisine
abertura
##rody
Karolina
##emen
##mem
Cody
Panther
##nkin
Bands
##shan
##legt
colonie
feuilles
Voltaire
reporting
##kale
Heller
Holanda
Pers
##nimmt
summit
Fever
##onas
##ulé
Louisville
croissance
británicos
Sigma
monumental
quantum
Hours
Pet
cancelled
845
912
Comparative
Merry
médias
Innovation
cercano
Freunde
relatos
Sejm
Selangor
videoclip
##zent
corresponding
fällt
##cla
##förmig
nennt
puestos
betrachtet
curva
Oba
##metri
Baxter
Chopin
affect
sonda
##ögel
gesetzt
tato
Browne
negros
emplacement
##laden
##bst
Fils
Instituts
##llus
beziehungsweise
plaque
Nana
Voss
resort
955
normas
tôt
Champs
##gste
##itats
temperaturas
pertenece
resa
##lichkeiten
sorpresa
Suriname
großes
##DE
##anche
##ield
##tile
Fiesta
awareness
parks
##zeugen
beschreibt
essays
##ryl
Estación
tier
##wm
Jansen
volonté
##taat
rent
climat
##kene
##pest
##rud
##Ü
816
Frieden
##ceo
##delt
##ismen
mündet
##gical
##icient
lien
##rnu
heiligen
monitor
Oni
unang
##tical
Henriette
##smen
türk
Davide
SQL
##kā
##rush
Yankees
050
choisi
##bber
Kahn
##smas
1499
variantes
ot
Wet
aufgebaut
notas
Stoke
##nomen
Mafia
##lament
développe
Cuban
emphasis
##sidir
entsteht
gama
ungefähr
Irina
##bauer
domini
empieza
Bollywood
##nian
NM
##epe
##36
##vore
1097
##zuführen
Regio
Wilder
cavalerie
Dorothea
codice
##guerra
designation
dortigen
agglomération
##vini
744
##jim
Jade
moc
Corée
aparte
##astique
##rvik
egg
Hate
Multi
physician
protests
Riverside
Kemal
##óc
Vorpommern
##boden
Gupta
concierto
navale
Tripoli
adjoint
Lowell
berat
1280
Hidden
actif
##yni
##bald
Cobra
Hinweis
Rana
reverse
Associate
véhicules
Juliet
Kod
Sied
Win
Pond
dama
##ât
nación
##toe
Mister
Góra
##vald
spanischen
fur
Singapur
bataillon
##gation
leyes
wealth
Laufbahn
backed
##sado
##gales
Gale
fuhr
Grab
##ider
Atelier
structural
##hdi
##nding
empate
desarrollado
Gottes
beginnen
dala
trenta
Rubin
ent
sz
##fonie
Archibald
Ascher
Škoda
vorher
Einrichtung
Platon
Ufer
Gus
##ghe
##öd
Buddhism
Bartolomeo
Vierge
##mla
Andhra
KS
lady
Rodgers
##kampf
Fortschreibung
catch
schuf
##zaki
Bing
Images
##xico
##imientos
##mbu
##tiga
##arti
Gina
larva
Horizonte
##metry
Fresh
##ruck
##vated
##wili
pupils
##guer
Hang
##bull
##ltu
##chnet
##dowe
##ynt
Cooke
Kardinal
imperiale
Brenda
culturel
##vene
technische
##annt
##lani
##lding
822
Effect
Engl
Hafen
ocupación
hoher
##vous
accueille
##pisch
précédent
##weist
Hersteller
815
revanche
superar
Spielberg
elementary
interactions
##ptica
Drums
##nkan
4º
##kä
idées
favour
Angle
##elde
665
ciudadanos
managing
##sliga
Session
Hellas
Himmel
##nome
##ügen
weak
usuarios
##usly
4500
beetle
farming
##trato
##ridor
##nys
##cone
##ilung
confusion
Tao
Grenzen
Hannibal
exploration
##bino
##tér
travelled
Viejo
##été
Jedi
##lej
##elte
SAS
##wiesen
rica
feeling
##bücher
Vocals
Browning
Antigua
Mozambique
Sonia
bislang
##füllt
altamente
863
962
clés
##90
##čín
Font
Morse
intenta
##bey
##ič
Studie
775
Investigation
695
coche
tourist
##sla
Exeter
belongs
Twee
##olus
Valenciennes
Clapton
##gnon
Milk
Kort
Leave
slo
##lora
Neuen
ehe
eröffnete
thin
McMahon
Reeder
Reeves
turco
##gative
843
certified
648
associé
convicted
Insurance
##rba
##chn
##oning
##wei
##III
regent
urbaine
Rumänien
NXT
sculptures
##yendo
Hobart
Hare
constitutional
Kroatien
##ivité
##ector
##stria
flux
##urar
tradicionales
Potosí
##ryk
Satz
Ir
Wembley
produir
comments
##pool
Europameisterschaft
copper
##etos
enten
sank
Verfassung
##éir
##ruz
##reiz
##festo
##isir
##utier
Tonga
##main
campaigns
inaugurado
Powiat
envoyé
Lopes
##inha
##send
Linien
formats
##jø
Ebenfalls
##cross
calendar
Hauses
##come
##fir
##zini
Estádio
sembla
Bloch
##kova
##verde
salon
capilla
##dong
flies
##fors
monthly
mesura
produire
Carlton
fleurs
creando
casting
hell
Mor
unterscheiden
##mati
Mozilla
departments
evolved
Same
SNCF
Schultz
Taj
##vun
##tingen
Villanueva
aust
asus
1066
ZDF
Playboy
reggae
telling
dame
##ribución
##nth
Là
718
RM
##bain
##üst
Monza
titulaire
Thousand
##erei
##niques
##ppel
Barn
##nac
##zog
Thornton
##doras
quién
Pluto
debutó
mañana
Comédie
Fabian
fastest
starke
Bet
686
tomba
Milán
1435
Flucht
australiano
Episoden
1509
Lovers
564
Yunnan
incluía
##CS
Watt
Insight
Posten
Engagement
ojos
##iard
Poaceae
Meredith
Gegen
essai
reviewed
792
specialized
##entat
##tke
soleil
##ektrum
##lance
Rosso
Franc
Pino
gods
Kristina
Rubens
##eté
2200
##trat
1365
Kur
oxygen
Amin
Zen
##ûte
Eventually
retorno
##anlagen
##lekt
extinct
réussit
Charter
tables
natale
vías
##ride
negotiations
random
valori
##grama
Territorial
recovery
##iero
Alec
verurteilt
##sions
##thal
##eady
killer
##ggy
Aquitania
pounds
AFL
participant
Alvin
Koninklijke
afroamericanos
escuelas
espagnole
##talo
##leder
##andi
##familia
worst
Fuentes
Saale
##smi
plain
shops
utilizan
##yf
##flächen
Remo
estimé
primaria
sello
##dog
sexto
Zeeland
1270
Contra
##obe
702
Mathilde
contributing
waiting
0001
compañeros
viva
hear
##quina
##ängen
cache
democracia
##fjord
Gift
puisqu
Mori
Deluxe
##szenie
Petar
##enzen
##uler
rencontres
Sucre
wrestler
Uwe
cambia
##ficu
Ridley
Geist
discurso
guten
##kau
##zis
apprend
causas
exactly
Passage
comienzo
##OT
Basilica
##tuna
sitting
1101
Bursa
##yuki
##gnan
##éologie
##forte
Traditional
##ithe
einzelne
limitada
##HS
##asu
##bera
Condé
##bry
##wechsel
##eño
##sena
Barcelone
candidatos
##sford
##servation
Euler
Mehrheit
religieuse
veral
relegated
##kert
##rya
hét
##enis
Agreement
Fällen
talento
##wder
##abi
fossil
##quilla
Straight
copia
cultivo
schweren
##äen
Gers
parroquial
Witte
equation
Janusz
Wolfe
732
##dati
Prometheus
##lgar
opinión
describing
##AA
Conflict
pointed
bienes
##issent
##bilitat
Charakter
fusión
##iller
##placement
dieta
##aji
raíz
##lever
assure
noreste
symptoms
##lium
constitucional
##leiter
##lesia
generales
gana
descripción
Bela
##mone
execution
SN
queen
dokument
731
##rgan
amounts
Lexington
vivió
Toby
piel
sky
Qin
guests
slova
752
##wley
essay
Maas
011
##uns
Saarbrücken
PK
teatrale
Spin
dramatique
Prayer
##aft
##angen
AI
Farben
##ïdes
##meyer
Antoinette
historiadores
##ographie
1360
Aero
Brave
motori
Townsend
##anke
Simpsons
package
Pepe
703
commentary
existente
##pere
##geschrieben
détaillé
##êtes
968
fighters
sure
Macintosh
##sato
##ulant
Harmony
Haarlem
##ziehung
Gallen
compact
##lard
explains
separa
moderate
substance
assessment
##sity
Juliette
honors
extend
jardins
restantes
Schwerpunkt
ida
##emos
exhibited
Erasmus
Scream
##zut
##wiec
CRC
sna
Workshop
britischer
##kob
##itter
Raiders
825
Antonín
Molière
consumption
estrenó
gear
Zbigniew
##lades
##poser
südöstlich
##logist
teste
MBA
1290
PSP
##tated
Bou
node
victim
Verkehr
##gend
##drome
##fying
##kowo
Sicht
penn
refiere
##mino
spécialiste
südwestlich
##orter
##ógrafo
hacía
theories
##nité
chan
##pedia
##plice
##vision
Ardenne
Cartagena
##ponen
guardia
valeurs
volle
filming
##niti
utile
##cisi
capella
##eco
Datum
Especial
victories
visas
Česká
##UE
Weston
Feature
##cherung
Duarte
Ausnahme
Madras
aime
AllMusic
Herodotus
##rint
Astrid
Houghton
Gerardo
belt
Hawaiian
##führt
Siegen
lager
poner
Timo
ermita
formations
encourage
teorema
hinn
planos
##cant
##ünen
Adolph
Tatort
Turks
##ónico
XXII
##pore
##yg
##yst
Medium
##monia
##cité
tehsil
##jot
Arias
distinctive
##tient
interpretado
##lg
##rey
occidentalis
Gegend
gelegene
##tof
##reifen
Serrano
##volta
approche
##bong
Himalaya
Sem
##rophe
Yard
##rafi
gong
estadounidenses
accueil
contexte
getrennt
##phine
Compton
Chao
shock
cabecera
##nero
legislature
Verdun
XXX
8°
Monet
##kind
##ziert
ret
##sino
##truire
##hild
Levin
characteristic
repris
##ärt
victime
##ncé
##θ
reducing
Tromsø
##uchi
dedica
inherited
##pli
##urd
estaciones
Armor
Sting
Shiva
intellectual
##LD
##uario
Caballero
Unity
Bat
développer
verb
##bergs
##funden
##usal
Budget
majeure
economica
ff
patrol
##sées
Speedway
##örer
Instrument
Matter
dessins
rusa
GE
##estre
Organización
ask
##eniu
##iola
##mique
enemies
panorama
##erweise
##raciones
Presents
Gujarat
Thérèse
Filipino
approaches
cutting
legislatura
perde
moneda
##kr
disputó
Nación
austro
cose
órdenes
Method
Malay
Marks
##bow
##stischen
sile
slowly
Autumn
mitten
##lean
Membre
Sender
Tarzan
derzeit
TC
graduation
##odie
Wilkins
crucial
Libertad
Dust
brigada
Nobody
revela
incumbent
##gano
Anthology
Léger
##vot
toile
##rupted
##dara
Bomb
guarda
##clo
##rbeitet
##rilla
Valenciana
clásica
Malo
Ersatz
Heidi
Newark
##urn
Sigismund
teh
escolar
##lexikon
Uzbekistan
statua
sensa
participating
drame
Nikolaj
franc
assists
708
convertirse
814
Cedar
##fies
##wachsen
inducted
##diti
inventor
actuales
Affair
sable
İzmir
Amiga
CW
protagonizada
##ficó
spend
Mito
##bni
1320
Patton
##pop
Rathaus
Nota
Ling
entidades
Plain
Bez
expédition
##tenido
##uine
##did
Investment
Robbins
ren
##none
Chávez
centimeter
Bhutan
albedo
##dende
Doubs
Rough
##lac
Depression
Lisbon
Filipinas
vos
##ml
##OK
Silla
Sakura
interim
##länge
bacteria
##aso
Seal
canadien
tissue
##loop
Publikum
narra
Pages
##ilu
Drum
disciplines
##lver
##nelles
Daraufhin
Stevie
Samson
paus
##úcar
Besitzer
McCoy
741
Bochum
Genoa
Wahlen
considérée
##tery
Amtszeit
Melo
lift
##itarian
##kommt
Sorbonne
tenis
FIS
podían
##ilité
fondamentale
##ssing
entorno
Dordogne
earthquake
Rin
##kang
Ent
Weaver
##rako
traten
Lothar
Ralf
##stab
Cuatro
Denkmal
considère
Takahashi
Ceylon
1130
dividido
##PD
##liti
Adele
Novak
protesta
1390
##bón
décès
Giuliano
laboratorio
inklusive
Aeropuerto
##ulla
cents
##lub
##uai
Nairobi
attempting
originario
##mita
##oby
##tane
##tones
permitted
Helene
Skin
migration
##drich
Baile
prosa
expansión
##jährige
914
Lifetime
étage
##bauten
##für
##rivé
Fantastic
prêtre
TD
aliados
approached
Ancien
pieza
##edio
escritora
##nty
forty
##schi
Hintergrund
cubierta
opponents
##idia
Crimson
##owicz
Gallagher
considerados
646
##zira
##pend
Nadia
motiv
917
Been
compatible
fotografie
##bella
DIN
Bud
TN
parada
fonts
681
2300
##cchia
forment
pedagog
Halbfinale
coat
naves
vrai
possibilité
refuge
Baronet
sleep
Venise
Forte
Ruf
norme
##altet
Mag
706
centrales
##fici
interpolation
nieder
Revised
##meren
Nordland
gra
Kuna
breeding
Sarthe
Rocca
essentially
Dome
dieron
depicted
805
Put
##tinent
Button
Lowry
choir
##tese
orgue
Rockefeller
bestanden
644
communaux
vorgesehen
inconnu
winds
##wah
conscience
mand
Lucie
defended
nannte
nose
Farbe
##opia
soi
Weiß
Associates
boot
Yin
talle
##produktion
pne
983
exit
##dado
Ruhr
outbreak
##hagen
##hru
oportunidad
privée
burned
##shin
aider
contraire
forts
sabor
##ndole
##jado
735
Junto
seas
Satan
departed
pérdida
Vergangenheit
représentants
Toulon
determinada
Triumph
affair
##nahm
Mandela
Tampere
##etud
##hali
Général
leve
Entwurf
##plätze
##ibi
zählte
##ciana
disaster
##onos
existiert
RIAA
##mitir
jan
Ching
##rys
##zur
Gabrielle
Independiente
neck
pasta
ermöglicht
##gest
Patrice
visitar
722
1497
Sicherheit
battles
652
coral
##gico
mouse
Imperium
##acho
Milne
gent
échelle
##vesti
Lok
##cendencia
##raria
Aube
RA
chip
fokus
Cuenta
identité
##demie
horn
Staates
maxime
Errichtung
##drón
Benin
titulada
identificar
##gehalten
##itive
##ciano
##latura
Jacobus
Lippe
##bosch
##stander
659
visits
Active
ark
weder
##ason
##ovy
##zve
683
Widerstand
##rigen
##éki
meat
narratives
##ebe
##SH
##gün
antique
Beaufort
Bentley
Relief
nef
903
986
IRA
##fare
##sore
Trentino
##erts
##fio
##cando
##iling
intègre
Host
##cados
Decca
Isola
parasit
##erland
Beaver
##mittel
Rioja
Dynamics
spots
voces
proof
Zugang
KZ
##unti
Niederlande
##âtre
##fekt
##zialistischen
enrolled
751
Fernandes
Gemeinschaft
gelegentlich
##houd
##sede
restauration
ruler
##abu
##cution
solución
Lim
ahí
sozialen
destruir
##quate
##chang
Cum
Calderón
carries
klassischen
pura
##hio
matin
##verfahren
Colombie
##nkt
##uyó
##laire
Blume
##bala
recueil
Sabha
kontroll
signé
Paar
artwork
##taine
definición
permaneció
##eek
flew
centri
détruit
messa
##elius
ediciones
miteinander
vende
##ateurs
Figaro
milk
Ars
##werp
collapse
espiritual
poésie
##load
Ivy
législatives
Pasha
snow
##sette
ado
informed
pieds
##cter
##leich
##arum
##chtige
Etienne
##ndorf
globale
##roman
##stir
historians
##blement
rot
Sängerin
##isión
##ewski
entstehen
##reichen
Nate
##nano
Mémoires
Pontevedra
Auszeichnung
Soria
gallo
##ruppe
Biennale
Havana
Monarchy
worship
amerindios
efficiency
Pepper
##latt
##lativa
FDA
Moral
religiosas
Almost
Marquis
pobres
concentración
##strar
##bee
Afrikaans
Fabrizio
initialement
##samt
713
##lska
##riet
provocar
##pted
##erate
##uida
Vikings
appelés
intervención
ordinary
Núñez
basin
##gänge
013
##hanol
Emanuele
soap
842
Hume
##otten
Stahl
Flames
innovation
##gestel
##foro
##oin
##uation
Ty
##tting
crosses
dud
Communes
Fax
Bahamas
##gulo
976
Krone
Verhandlungen
687
##pôt
difficulties
Panchayat
specified
Transformers
##ünn
##mack
communist
organismes
##tria
convertido
##kade
consumer
##turing
Région
automatically
##otis
drives
Choir
Sichuan
befördert
##utz
##zerk
desarrolló
pitcher
reicht
sait
Writer
carreras
profesionales
##vce
Civic
##taro
##sworth
doctorat
Festung
Nominierung
promovierte
universidades
##ministerium
##nks
##pata
automne
##zadas
Bosco
lectures
##ryn
FR
Veterinary
Antony
Monaten
árabes
connaître
##quía
Moody
##hana
##mande
SB
elevado
##sers
Moor
Román
##dona
nordwestlich
seemed
étrangères
spelt
Nathalie
##gona
##inador
Camino
amiral
##geleitet
Sar
2100
encontró
##leja
Patienten
Areas
Guam
##marks
##ination
jag
##cting
##ddon
Manson
nap
Sinatra
Sheila
citizen
enforcement
Others
generals
##ktop
corre
##bringen
tapi
religions
##tec
##yclone
Spa
rendu
interactive
nah
primaire
##radi
Aquino
##dean
Mühle
toa
##was
Wen
##lick
##tello
ukr
incendio
servi
NP
Masa
Marriage
##gier
Jessie
##roat
##rün
Canadiens
Sal
forêts
berichtet
diplomatic
fundadores
worker
Sonne
Speaker
retourne
676
vinyl
integration
posiblemente
##gios
Found
proves
##curs
##pid
alianza
demands
##ldig
interesting
ergibt
##thetic
attendance
Maximum
orquesta
Gemini
pisos
styl
##parer
CSU
##hoda
motif
consultant
industriale
Einzel
Pike
seuls
##rales
##ciem
##iments
blancs
montañas
Enric
specialist
dejar
##uele
##tanti
cuadrados
Clubs
revival
ocupada
##zara
Fürst
logic
stiftet
Documentary
Sense
complejo
##schriften
valid
haven
Englisch
Danielle
clásico
Published
Yonne
##ntis
rpm
##state
keys
##immung
Jang
778
signals
##bron
empty
Eisenhower
Ausdruck
Enn
847
Materials
Piet
gifte
VV
855
Duisburg
earn
extends
##sdienst
##cide
##mpo
posibles
discours
coleóptero
##ografi
rayon
semifinal
novelas
void
##ürzt
Vettel
dictadura
##úe
##WD
Chiefs
differenti
##posite
KV
prim
Dumas
##vait
Radar
##ciformes
##hockey
Patrol
Starting
libretto
##meta
##ngere
Kontrolle
Trip
##tuito
Duran
supporter
Naked
Trujillo
Vereine
##orno
##wissenschaftler
Messier
Missing
martial
modifications
##ź
génération
supplied
##förde
##sehen
Ranch
arriving
##ktu
Carlisle
##cratie
##power
##tour
673
##zler
##ssia
##cence
##rooms
765
762
Lutheran
tribal
paroles
nordöstlich
secreto
##ipper
öffentlich
Puig
##jere
proviene
disparu
##croft
##lied
Minerva
eigenes
##timo
Arno
Funktionen
entlassen
Ter
Turquía
Ugo
Zappa
##gst
conoció
##chta
guerras
partis
##istrat
Bermuda
möglicherweise
##räume
ingleses
##ifen
Putin
Nikki
rende
renowned
Arles
magnitud
##curo
##boot
##hant
jurist
Patria
aboard
roster
ministry
removal
viven
appareil
##zuki
Moulin
brun
##hna
##órica
Midland
bloc
Elaine
simultaneously
##gino
ofensiva
##beta
##sichtlich
##tans
Jeden
fifty
wasn
##folge
comprar
Shine
joins
Cicero
mittleren
torpedo
minori
##tman
explicar
##ecciones
politisch
##arach
##rát
cifra
domicile
##rchie
##riat
lograr
##rima
Distrikt
lunar
Consulta
Cali
vicepresidente
##mage
742
Cavalry
##dure
Mercer
##öten
Period
##grafen
Menge
Tibetan
quitter
##lité
Eminem
996
##ulos
##ior
Westwood
convirtiéndose
juvenil
##turas
Repräsentantenhaus
Noise
##nine
##präsident
choses
PD
Terence
cavalry
examination
célula
##cante
pioneer
##cism
##ängt
##úd
771
positiv
##bände
##tention
EK
présents
##folgenden
1518
Dani
##tary
llamó
escaped
##bation
##hers
651
649
Desarrollo
Photography
##dliche
waves
##ossen
Antioquia
Franken
1241
lenguaje
##CC
##ährt
relacionadas
##oche
Sachs
algebra
arcade
siege
Crimea
##šť
Woche
angesehen
Mach
TNT
##ceno
Pulitzer
Actors
Daimler
resultó
Parliamentary
Rage
##owiec
Christen
##emann
Coll
Wege
Fondation
Seen
incluido
##resi
Clint
##fis
##hammer
##jista
##lings
quería
Rubén
riqueza
Valois
Harley
Traffic
Understanding
existent
missiles
##UT
##rner
Bulgarien
Spectrum
habilidades
806
britanniques
##makers
Reste
Addison
contenant
manche
Yr
##otto
efficient
##lógica
Nová
subtropical
Civilization
Pons
Picardie
triangle
narrativa
Borg
könne
##asto
Maschinen
strand
##ained
##illy
Zeitraum
bel
##ild
756
Download
gemeinsame
##viennent
deporte
verpflichtet
721
decorated
sentir
Coalition
##acon
##orna
disposition
Oberst
##äri
##ítimo
Jul
Yourself
Großteil
Surat
murdered
humain
##haga
Nachrichten
carbono
##polita
lancé
##suna
E3
Ribera
claramente
eliminar
##vais
pulled
Osborne
Berge
hub
##mari
Munster
circuits
manchmal
retrouver
##plant
médicos
établi
##ilio
commenced
Clausura
grass
##verlag
654
##miu
Unionis
Weibchen
##torie
##mbia
##roux
sorta
##ocht
sociali
cérémonie
gases
Reforma
tested
Dor
Tomé
##erk
Coral
Guards
konte
Enough
consacré
ly
##verso
Sanchez
##RE
##ución
Pace
laga
##nommé
survival
##GM
complète
##chert
Survivor
Ola
formalmente
lung
Bello
Fender
##cius
width
##stätte
##read
##stiche
##vernia
Sharma
chileno
minima
wish
##menes
diámetro
##ptat
Amendment
producida
##umont
Hollow
achievement
Photos
Strom
namely
ordenó
pico
##äste
Sunny
##nma
Harding
Panorama
faster
Titans
##utt
Bauern
##ptères
Easter
resignation
connects
Poor
estimées
Ponce
scala
Glover
##uss
Muse
##aag
##noten
tropisch
##ucido
##nesi
Lech
Nil
995
##round
affirme
aventura
##goa
tio
##eption
Atlántico
presidencial
milliards
difficulty
Sacro
encontrada
pueda
##kro
##stellungen
discrimination
1469
Comuna
absolue
##straat
Diversity
Soft
##linder
##sance
Jasper
ocupó
##enter
pointe
##laya
Khmer
zeitweise
pouvoirs
Rhine
endgültig
##rmen
Bride
Treasure
##ificar
Kaplan
affiliate
##eille
##alog
Wrong
únicamente
##kre
lied
Syrien
amiga
##ffle
Medellín
hali
Sale
Halbinsel
Garfield
chorus
ministers
##dok
entier
##lite
##ława
##sari
1930er
Warfare
bog
Fidel
Jenna
mène
usos
##ículos
##arf
magia
Oleg
##iul
duel
Anatomy
stub
Path
individuelle
schwedischen
##ysis
Organisationen
pourtant
##inata
##aju
venues
##uth
Moderna
##rosa
##ólogos
Activities
scheint
##geteilt
frecuentemente
Montagne
Forward
##ceed
Cope
mínimo
##nzi
##pón
##stal
Verdienste
##olver
Inferno
materiali
nominations
proportion
Tucson
Ubuntu
##etre
##cribed
745
##xter
Had
custom
##nye
##rila
Unknown
Effects
bearing
##uku
Assam
##efer
raramente
##ilien
relacionado
límites
##leger
##iski
##pso
connus
Patriots
##jed
resolver
anfangs
Leadership
Dur
Serial
##inski
##wacht
##aton
pen
##aktion
Kleiner
##uara
##mesa
Michaels
topographic
##stid
verbindet
Katy
invierno
Maßnahmen
damalige
excepto
##sgebäude
sofort
erreichten
Brod
discussions
##raphique
Wonderful
##nymous
historias
##rmal
adolescente
aware
invention
nephew
régionale
2000s
##ociada
##yman
Tier
1348
Algunas
cristal
##bone
Eternal
protestante
frontal
##ützen
Gal
##sur
Beatriz
##uas
ambient
682
permitir
##risi
puertas
Archie
##ndri
ehemals
BY
##eilung
Alpine
undergraduate
silent
##ectivo
##bier
Docteur
##trus
Baie
##erze
##posing
contraste
réforme
Allemands
##erman
##bita
Acoustic
Entstehung
Leonid
sudeste
Bestandteil
Golfo
##lén
Serbie
cluster
663
légende
Brecht
abstract
flower
##chnen
##dios
##teti
##bór
Dickens
Reiches
Sitio
ausencia
##wati
comienzos
switched
Pakistani
cambiar
dolor
##dest
Process
##mira
Sawyer
categorías
editado
##nj
##preso
Wanted
##iest
##yda
sélections
Moro
freien
##pher
##tados
658
relating
##nating
bestätigt
Slim
Methode
##gami
default
castellano
guionista
##vian
Brunner
Cast
Logic
Score
databases
früh
Gründer
trabajadores
##nesia
##yden
exhibit
lernte
überhaupt
Preto
adquirir
Classe
##fession
meur
kB
##gerichtet
Sirius
ARIA
Nationalsozialismus
Aire
romani
Pola
##uben
abrite
enemigos
récit
##LS
Lawson
Monterrey
collaborated
##hilfe
662
Monti
##pogon
##röm
tap
placing
Emirates
Snyder
falleció
##ophora
Lourdes
##torium
Meiji
heile
##eske
Fragment
##yai
Concordia
##öy
Bihar
Worms
sk
##uv
##élt
Alf
explain
résidence
##sung
##ückt
Paco
bombing
Gemälde
captura
##cionó
thesis
restrictions
Réunion
##haber
tuy
##gora
Lana
##ück
Applications
S1
laboratory
##guera
comparable
langage
barrage
delayed
##fassen
Thursday
Lafayette
nomme
Esperanza
##zul
##ipo
nickname
##platte
curve
##marine
authored
meu
##llion
##wels
##iales
Sign
statues
prennent
Tanto
Tong
consist
phases
##ipes
Federer
criteria
##tren
Worldwide
##reme
Intercontinental
erzählt
##führen
Behavior
tentative
##ntation
Chandra
posiciones
Borges
interpretando
Problems
dair
Annette
administrator
Omaha
beam
Asimismo
Polar
##each
##moni
verhindern
étrangers
Cherokee
Odyssey
Perm
specimens
Margherita
##stice
recibido
étapes
geborene
##hov
razones
##ließt
Guitarra
Robb
##osu
nominal
Poder
englische
2021
Chain
##cedió
##mante
Bamberg
##venció
Baum
Sep
Urdu
##stante
Motorola
##NO
##stió
construida
Midlands
##ump
Ama
sending
##scheid
partage
##érité
impériale
##laine
hydrogen
895
disbanded
tournaments
stanza
appellation
##raient
Cindy
totalement
Camden
Monitor
abierto
dress
proteína
##benen
##cam
Palomar
##sbezirk
##dao
##kil
719
WORLD
Alles
##lug
Arbeiter
##ceps
Loan
historically
Aguilera
Behandlung
Besonders
##reng
A3
Universities
##IX
716
estime
##uite
##uía
tráfico
692
##itant
##ließ
Stücke
cool
planten
KO
##atos
##atories
709
Julián
##áce
##sker
Firefox
equilibrio
paredes
Cáceres
Mailand
##uera
Anatolia
##uye
liberale
##buran
##pende
[...]
